#version: 0.2
d e
Ġ de
Ġ e
Ġ l
o s
Ġ c
Ġ p
e r
Ġ a
o n
e n
a r
Ġ s
e s
a s
a n
c i
o r
Ã ³
Ġl a
a d
Ġe n
a l
u e
i n
u n
r e
Ġe l
Ġ m
t e
Ġ y
t i
t r
Ã Ń
t a
q ue
Ġe s
Ã³ n
Ġc on
o m
d i
Ġ un
Ġ f
t o
Ġ que
d o
i c
Ã ¡
i s
Ġs e
Ġ h
Ġs u
Ġde l
ci Ã³n
r o
Ġl os
Ã ©
Ġ n
Ġ C
r a
Ġ E
o l
r i
Ġ re
Ġ v
Ġc om
a m
Ġ 1
Ġ S
ad o
t u
Ġ in
l e
Ġ o
Ġ A
Ġp ar
Ġp or
l a
Ġ M
Ġa l
a b
en te
ÃŃ a
Ġ g
t er
d a
Ġ P
Ġ "
Ã ±
r es
Ġl as
Ġ L
i l
Ġ di
Ġun a
i en
Ġ b
Ġ d
c u
i o
ci on
Ġ (
m p
i g
d ad
l o
i a
e c
u s
ad a
Ġ 2
Ġp ro
e l
Ġde s
r an
Ġpar a
Ġ B
Ġ tr
t or
Ġcom o
b i
Ġc u
t os
Ã º
m a
Ġ R
Ġ D
Ġ T
ci a
v i
c h
q u
c a
Ġ t
t es
Ġ1 9
Ã¡ s
Ġp er
ic a
i z
Ġ G
Ġ F
al es
c o
b re
g o
Ġ2 0
an do
Ġf ue
p a
Ġn o
u l
er a
i t
Ġ I
Ġ j
ad os
de n
m ente
Ġe x
Ġ J
u er
s e
cion es
Ġ N
Ġl o
i m
c e
t en
ĠE s
i r
Ã¡ n
i Ã³n
Ġa n
Ġ H
v o
tr a
d os
i e
Ġm Ã¡s
a j
p o
tr o
i ci
m o
t as
t re
Ġa c
g u
a y
t ar
Ã© n
p e
ĠE n
i b
Ġsu s
a ciÃ³n
Ã© s
u m
Ġm e
ri m
Ġ V
er o
i dad
u r
ĠE l
i v
Ġa Ã±
Ġ ti
ic o
a c
Ġs er
Ġp o
ad or
t al
Ġ U
t an
Ġ r
Ġcon s
p u
Ġ i
d u
Ġes ta
e m
Ġa r
Ġp r
Ġ te
Ġc a
de s
ĠL a
p ar
t in
Ġs o
Ġ to
E l
Ġm u
ta m
de r
Ġp rim
i os
Ġa s
Ġh ab
i do
Ġl e
Ġ res
v a
l an
Ġ O
Ġdi s
b l
E n
er s
" ,
Ġes t
Ġh a
0 0
i da
m b
z a
Ġ or
Ġen tre
g un
ar on
ien to
an o
) ,
c l
r u
ad as
b a
Ġf or
bi Ã©n
i on
Ġo b
Ġ20 1
Ġc ar
c es
l os
qu i
t Ã³
n a
am ente
u g
al mente
c on
â Ģ
p er
l as
r as
e g
Ġp a
ÃŃ s
m an
Ġs ig
e z
L a
pa Ã±
Ġp res
Ġpar ti
Ġ Ċ
ĠU n
g en
is ta
ÃŃ n
l es
er on
Ãº n
in a
Ġ20 0
v en
al iz
ĠA l
Ġin ter
Ġc am
Ġi mp
ci p
j e
er n
d as
i or
ti c
en ta
ran te
tam biÃ©n
an a
tr os
Ġm o
Ġes c
Ġf in
Ġ K
p or
f er
p os
Ġ W
Ġc i
Ġc as
Ġ tambiÃ©n
Ġp u
Ġl le
en cia
ti v
t ado
ĠI n
) .
is mo
ar a
Ġc an
cion al
Ġs on
j o
Ġn a
o ci
Ġf uer
u rante
ĠaÃ± os
Ġp ue
in o
Ġ1 8
Ġp re
Ġd os
tu ra
as ta
c ciÃ³n
Ġm an
Ġp os
t on
Ġso bre
ĠS an
en s
on de
Ġm ay
i f
Ġa b
" .
s on
Ġm ar
b le
tr as
Ġper o
g a
Ġm a
ÃŃ an
Ġc ol
ĠM ar
ti l
Ġc or
Ġ ter
Ġes te
Ġme di
v e
ti ca
ĠR e
Ġ 3
tr u
Ã© r
ĠC h
Ġ Â
f ici
Ġs i
ĠS e
Ġh asta
ĠC on
Ġg ran
Ġn ue
Ġpar te
i as
en to
Â »
ab a
en er
m as
u b
Ġd onde
pu Ã©s
Ġs ol
er os
g r
f or
ĠaÃ± o
Ġ qu
m in
Ġc re
ar io
Ġre g
b r
ĠÂ «
en e
l am
on a
Ġ Ã©
u dad
h e
en tes
Ġcom p
l ar
in cip
Ġe mp
c ar
ĠA r
ic os
Ġn om
Ġdes de
tu r
Ġe ra
em bre
ĠA n
m e
Ġpr incip
ci o
aj o
g ra
ti tu
an te
or es
i den
in g
un to
m i
Ġpro du
Ġ Ã¡
Ġtr a
Ġv ar
Ġa p
ec h
Ġp as
ien do
Ġd urante
Ġa u
Ġin s
e mp
ci as
en do
c tor
on es
e o
ti co
Ġes tu
Ġper son
t ados
Ġf un
ti vo
g os
Ġs in
an s
Ġci udad
is iÃ³n
Ġp ol
ter ior
e a
p res
Ġm un
de m
z o
ch o
i dos
il l
ĠS u
Ġcon tra
m en
ĠL os
Ġin cl
ci al
g an
ÃŃ as
Ġprim er
ar go
an z
Ġ19 9
or a
i Ã³
ci Ã³
Ã± o
ĠN a
en di
Ġtr ab
ĠD e
i ciÃ³n
Ġmay or
Ġdes puÃ©s
o g
Ġhab ÃŃa
v er
ue l
Ġcu al
la ciÃ³n
Ġh i
Ġfuer on
ion es
u y
Ġfor ma
Ġy a
Ġm en
ÃŃ o
Â ł
ic as
Ġ 4
ch a
Ġpro p
m iento
Ġt en
d r
Ġs al
ue go
Ġes pe
ug ar
Ġ us
ĠC ar
Ġ X
Ġcu ando
ador es
es ti
Ġprim era
Ġ âĢ
i to
Ġ Y
b er
t h
Ġc o
Ġest Ã¡
Ġe mb
tor ia
ÃŃ cu
Ġh is
j a
Ġp e
r os
Ġte mp
ĠC om
iv ers
Ãº l
Ġc er
is te
p on
c al
n o
1 9
Ġre aliz
ar ro
Ġl lam
Ġo c
Ġ 5
Ġt an
i de
tan te
Ġo tros
r is
an os
it ar
an tes
p ec
cu en
Ġm ismo
Ġa d
Ġal gun
ĠM a
i d
Ġtr as
Ġg o
Ġg ru
Ġ u
c os
Ã© c
Ġestu di
Ãºl ti
Ġac tu
Ġe qui
s o
ĠR o
Ġg ener
ar se
Ġl ugar
Ġre ci
Ġ tu
Ġde n
u d
Ġc en
ti va
Ġ ro
an d
ĠP ar
Ġlle g
Ãº bl
e t
Ġm on
Ġv ez
Ġc al
en a
ig u
Ġl ib
i er
Ġcon oci
Ġun o
Ġa m
Ġp lan
Ġse gun
ar d
Ġ do
Ġc l
dem Ã¡s
Ġ19 8
Ġa par
al l
Ġsig u
ern o
Ġf am
c er
Ġb as
ul ar
r en
Ã± a
un que
Ġen cuen
Ġtr es
Ġh er
Ġti emp
g e
Ġmu y
Ġfor m
Ġas ÃŃ
in e
Ġesc ri
ti s
Ġv er
Ġe di
m os
Ġ Ãºlti
ta ciÃ³n
Ġ 6
ĠF ran
Ġca p
Ġdi re
Ġpa ÃŃs
Ġde ci
al a
ti r
ri l
Ġtr ans
ica ciÃ³n
Ġnom bre
Ġimp or
arro l
Ġpue de
Ġcons tru
Ãº s
is tas
Ġti ene
Ġc ab
Ġqu ien
om in
uer ra
ida des
u ro
f ec
Ġde b
o p
e d
cu r
pu es
ĠP a
ec es
ien tras
ic h
ce p
til iz
Ġs ido
Ġf u
tic as
it al
j er
Ġespe ci
Ġ Ã
Ġg ra
Ġ ra
paÃ± a
ĠC a
Ġest ado
di Ã³
da des
di a
Ġn or
l u
Ġpol ÃŃ
Ġin v
Ġemb argo
Ġ19 7
Ġdes arrol
Ġm il
ti Ã³
Ġpu bl
ĠL e
gu a
I I
bi erno
ch os
Ġm is
v in
Ġtiemp o
bi do
ab an
paÃ± ol
ĠA s
Ġ Z
Ġsig lo
b an
Ġp el
Ġu tiliz
i al
i ente
ri g
Ġsu per
Ġe je
c en
b o
i p
E s
Ġb a
Ġv e
Ġb an
c as
Ġor ig
Ġv ol
Ġin f
Ġdi fer
Ġ1 5
il la
Ġ z
us o
Ġto do
Ġs en
om o
Ġtrab aj
Ġde f
Ġo f
c or
i ta
Ġan ti
om b
Ġh an
Ġ 7
ci l
u ra
Ġcu l
bi Ã³
ĠL as
Ġcom en
L os
Ġv i
ĠP or
Ġ1 7
Ġex p
c ri
am iento
Ġcon tr
Ġp es
a tro
Ġcom un
ĠJ u
Ġlle v
ti do
c k
Ġre pres
Ġc h
t Ã¡n
Ġg an
Ġme j
Ġdi v
Ġc os
tiv os
con tr
Ġgru po
vi r
ĠD es
us tr
Ġj unto
ĠG u
ol u
Ġ 8
Ġtemp or
Ġfam il
Ġa cu
Ġ da
Ġn Ãº
Ã± os
Ġpro f
ĠUn ivers
00 0
b ol
Ġsol o
c re
n e
ta c
om a
Ġb ajo
Ġes e
Ġf r
Ġ19 6
ici p
f ic
ĠC o
aj e
Ġen contr
Ġin ici
Ġm in
Ġequi po
Ġh ac
Ġcon f
ad re
Ġcon tin
ĠC ol
en tos
Ġser ie
Ġl i
Ġp la
cu l
tic os
ĠM e
ĠL u
di o
Ġ tor
Ġnue vo
Ġc ada
Ġm ientras
Ġes paÃ±ol
Ġel ec
Ġtan to
Ġre v
ien tos
Ġs iste
ab le
2 0
ĠC or
Ġv en
is ten
Ġto dos
er v
Ġt ar
Ġen tr
p i
gan iz
g res
dos e
tin a
p ti
Ġin ten
ci do
e le
tor es
ci s
Ġpel ÃŃcu
Ġs iendo
iden te
Ġ1 6
Ġa unque
Ġl u
Ġj un
Ġm uer
Ġf e
t ada
Ġha cia
am biÃ©n
Ġpu es
âĢ Ŀ
ĠÃ© l
Ġv ida
ue la
Ġc r
Ġo tras
Ġcomp le
y o
y a
Ġfin al
ie mb
ĠEs tados
ĠC as
p re
Ġa f
Ġan tes
t ad
Ġre la
Ġ 9
ar ios
Ã³ m
qui er
ĠS in
Ġo fici
Ġgo bierno
Ġesta ba
Ġcomen z
i ma
Ġsu r
j os
ci os
Ġj ug
a p
ton ces
ĠB ar
or d
Ġ1 0
ĠUn idos
Ġpo b
ĠM on
ĠnÃº m
te l
Ġ19 4
mp l
Ġf a
ĠNa cional
Ġ k
Ġn i
te g
ri Ã³
g ar
Ġres ul
y ec
l ic
Ġsu b
al le
ĠC u
Ġgener al
ĠJ os
el l
ul io
Ġv is
Ġm iemb
Ġd ÃŃa
ĠâĢ ľ
Ġf ran
ĠJ o
t s
Ã³ g
Ġincl uy
ta mente
tor io
al idad
Ġpro gra
Ġv o
iz o
om e
z as
Ġ -
ĠEs paÃ±a
qu es
Ġl anz
b e
Ġin di
Ġt ÃŃ
Ġg u
Ġh ech
d or
Ã³ r
Ġtu vo
Ġmun icip
Ġ ta
en o
Ġhis toria
Ġse gu
b um
Ġpubl ic
t ando
Ġesta ble
c an
Ġ19 5
Ġen tonces
Ġ19 3
for ma
t Ã¡
Ġa le
Ġvar ios
ĠA m
Ġdi ci
Ġap ro
Ġp Ãºbl
ĠC am
Ã¡ f
ĠUnivers idad
ĠP ro
Ġor ganiz
Ġalgun os
ar ia
u la
l bum
h a
Ġm us
ol og
p era
tr an
Ġ( "
Ġc las
ib le
Ġre con
Ġest Ã¡n
h i
if ic
Ġtempor ada
Ġpe que
tur al
tan tes
Ġde bido
Ġ is
a ciones
Ġm es
in as
Ġnue v
Ġpres en
ĠÃ¡ lbum
ĠB o
an g
Ġtra v
Ġb ar
Ġsi tu
ĠN o
ĠnÃºm ero
Ġcu atro
a u
Ġmej or
ĠJu an
c el
Ġpro yec
Ġtr ad
Ġ ri
Ġencuen tra
tu bre
Ġmay o
Ġa po
ĠT ambiÃ©n
ĠM an
c ado
l or
ĠM un
pti embre
Ġmun do
Ġpue den
Ġb ien
Ġm om
ec e
Ġtrav Ã©s
Ġh um
i es
i le
Ġes tos
Ġ1 2
Ġl uego
Ġ Q
re a
Ġde r
ch e
Ġa demÃ¡s
Ġob ra
Ġa mb
Ġoc tubre
ar es
Â» .
Ġse ptiembre
Ġo tro
Ġmu jer
Ġb u
tin o
Ġm Ãºs
x im
Ġ Ãºn
Ġan te
Ġsiste ma
Ġv ers
Ġh ay
Ġpro vin
ter a
Ġser vi
g Ãºn
ti vi
Ġes ti
ĠA le
il idad
Ġj ulio
for m
ÃŃ f
Ġa y
Ġpo der
ĠM Ã©
ĠpelÃŃcu la
Ġe ran
Ġc in
Ġjun io
vi Ã³
ar ÃŃa
Ġt om
Ġorig in
Ã¡ c
Ġeje mp
Ã©r ci
j Ã©rci
terior mente
Ġmar zo
ien tes
Ġcontin u
ces o
gos to
s a
Ġdici embre
Ġob je
ĠG o
Ġprof es
cion ales
de ra
ti on
ĠÃ ģ
ir m
Ġperson as
Ġdi rig
Ġparti do
h o
Ġpob laciÃ³n
un d
os o
Ġen ero
Ġel los
Ġv al
Ġde re
Ġto da
Ġcon se
Ġh izo
Ġno vi
Ġa gosto
Ġde j
Ġtar de
ĠEs te
Ġau tor
Ġcon vir
Ġto tal
r era
c Ã³
Ġfamil ia
Ġprincip al
Ġg uerra
Ġel la
ĠF ue
v al
iv el
Ġab ril
Ġ1 4
L as
ĠL o
ĠP er
Ġque d
er ÃŃa
Ġnovi embre
Ġg ol
ĠM o
Ġre f
Ġcu enta
Ġti en
v is
ch as
Ġtrab ajo
tr al
er ic
Ġn eces
ac ter
u es
ig a
ĠT o
p en
i der
ĠB a
i an
v es
tu ras
Ġemp res
in os
cu lar
u t
Ġnor te
Ġe con
on g
. .
er do
e x
Ġper mi
di da
di al
ĠO r
Ġcom er
ĠC an
ĠJos Ã©
f o
Ġf il
ĠÃ© po
ĠG ran
Ġsegun do
br ero
Ġl ÃŃn
l ica
ci den
Ġn e
i k
ĠE uro
Ġhac er
min is
Ġn ivel
i ra
jÃ©rci to
x ico
ĠtÃŃ tu
Ġlo cal
tar on
Ġp un
Ġs im
Ġsigu iente
t ales
ĠS al
Ġz ona
Ġparti r
Ġcom paÃ±
Ġob s
1 8
Ã³ lo
Ġor den
ter na
A l
Ġ1 3
Ġmom ento
Ġh om
ĠN ue
is o
n os
ĠEs ta
olog ÃŃa
ci miento
ĠI s
i re
v an
les ia
Ġpo p
bi er
Ġten ÃŃa
Ã©r ica
Ġban da
ol Ã³g
ib u
Ġsegun da
b lo
ri d
Ġinv esti
es te
e f
Ġter ri
Ġdis tin
Ġl es
c om
ci ales
Ġmil itar
Ġmuer te
ĠÃ©po ca
Ġna cional
den cia
e ta
j as
Ġdiv ers
Ġmu chos
tiv as
Ġo cu
u da
Ġdi se
Ġs ie
Ġden tro
Ġn eg
Ġter min
Ġfe brero
ĠMÃ© xico
os a
i ano
Ġse Ã±
tru c
tu vo
ab or
Ġgran des
Ġhab er
ĠM ad
Ġm ill
i das
Ġ1 1
Ġlo gr
Ġcons ider
Ġcar acter
Ġmedi o
Ġnue va
Ġin d
te c
s titu
Ġl argo
Ġvar ias
Ġo tra
Ġte le
Ġre y
Ġpo co
Ġp ri
ĠP e
g on
Ġpres idente
Ġca us
i tu
or n
Ġca pa
ĠN or
ĠC en
S e
tam iento
Ġl ÃŃ
Ġd Ã©c
Ġe fec
Ġr om
Ġmayor ÃŃa
b io
i tos
Ġun os
Ġmis ma
que l
ĠR a
Ġh o
Ġcontr ol
Ġprogra ma
v ar
Ġmen os
tan cia
e ci
Ġman era
Ġm er
Ġha ce
Ġr ÃŃo
Ġde cl
d ÃŃa
ĠB u
ĠS a
Ġinter na
D es
ig n
p el
Ġhech o
Ã³ s
b ra
Ġp ie
Ġimpor tante
Ġcen tro
e dad
ic al
Ã¡ m
Ġti po
Ġder ro
ĠS o
Ġob ras
or ÃŃa
Ġparti ci
re g
Ġdis tr
p ol
l ÃŃ
c ÃŃa
i el
Ġinter pre
pos iciÃ³n
Ġ ub
c ol
Ġr ad
Ġdifer entes
r ado
Ġp al
Ġcomenz Ã³
t ÃŃn
ci dad
Ġac tivi
Ġp in
T he
t bol
Ġreg res
ĠP o
di do
Ġi de
ĠÃºlti mo
Ġcas o
Ġre l
Ġcas a
m on
er g
Ġm Ã¡
ĠÃ© x
ten er
Ġt al
am a
Ġes to
ion al
Ġejemp lo
Ġcan ciÃ³n
Ġma ter
b ern
e za
f ÃŃa
Ġd ÃŃas
ĠV al
Ã ¼
ĠP ara
Ġp adre
ĠG uerra
man a
Â» ,
Ġfun d
z ar
Ġv ic
tÃ³ r
Ġ19 2
Ġpop ular
Ġhab ÃŃan
ĠmÃºs ica
Ġprim eros
Ġes tas
v isiÃ³n
v il
Ġan terior
Ġin g
Ġmill ones
Ġanti gu
tal la
Ġhi jo
Ġconoci do
Ġc ele
ri o
Ãºbl ica
Ġar t
gr Ã¡f
Ġh or
gen tina
Ã¡ l
Ġa mpl
Ġcl ub
pos i
ĠT he
Ã¡n dose
ĠSan ta
Ġrepres en
Ġse gÃºn
f a
Ġv ia
s iÃ³n
r y
di s
ĠN e
Ġti er
Ġex per
Ġes pec
Ġcu er
ens a
ĠC al
h n
Ġ ,
Ġsig n
Ġto das
Ġdes tac
Ã©c n
Ġcr ÃŃ
Ġedi fici
Ġper io
is t
Ġcons ide
Ġus o
Ġparti cip
p endi
ti dad
Ġpes ar
Ġalgun as
ĠMar ÃŃa
k a
Ġc ien
Ġcar rera
k e
Ġm Ã©
r on
ĠC l
Ġle y
Ġ igu
Ġllam ado
un a
Ġtien en
Ġprodu cciÃ³n
ĠtÃŃtu lo
Ġg en
ter io
ĠEs tado
Ġfr ente
Ġj uego
ca ciÃ³n
un iden
ta ba
Ġreg iÃ³n
Ġc ris
i eron
vi eron
" )
Ġa g
u al
Ġt Ã©r
Ġcu ar
v or
Ġdesarrol lo
Ġdes cri
Ġcom ien
Ġa quel
t om
ĠF e
Ġcu ales
er as
c anz
Ġnom br
Ġpro ble
Ġan un
Ġdire ctor
Ġmo vi
en os
Ġv iv
Ġdire c
en tal
Ġin de
Ġp unto
Ġprovin cia
Ġcon o
Ġ2 5
ĠpolÃŃ tica
ĠH a
ĠH o
ĠD a
Ġcon j
g as
g el
t Ã³n
uer to
aj es
tiv amente
Ġs a
Ġb o
Ġen f
r ic
Ġci er
Ġconvir tiÃ³
Ġa ta
ĠNue va
iv il
Ġdes cu
Ġc ir
m Ã¡
Ġe p
im on
Ġs ÃŃ
Ã± as
v ia
Ġde di
Ġin te
Ġs ue
Ġlib er
Ġ3 0
e b
ĠlÃŃn ea
Ġmiemb ros
Ġcar go
ĠA demÃ¡s
Ġv eces
C on
Ġvers iÃ³n
Ġincl u
Ġa gua
Ġal canz
Ġ201 0
pa ciÃ³n
Ġdef in
Ġes pa
Ġcons titu
Ġconstru cciÃ³n
Ġcin co
ig o
Ġb aj
pues ta
Ġes a
Ġre cu
Ġdis co
Ġestado uniden
Ġas es
ru z
Ġdi o
il o
il ar
Ġpue blo
tar io
Ġcas i
Ġf al
ĠE x
en cias
pe ona
Ġb us
Ġgra b
ĠdÃ©c ada
er ro
enta ciÃ³n
p ro
ador a
p Ãºblica
ri tÃ¡n
ĠM us
on d
ĠCar los
Ġle g
or k
Ġpa pel
ĠS h
Ġex ten
Ġinvesti g
ci n
Ġt ener
Ġa h
ĠÃ©x ito
Ġel eg
l ado
d al
Ġ201 1
a z
Ġm as
Ġestudi os
re de
Ġecon Ã³m
Ġprodu c
ĠMad rid
Ġun ivers
on ia
ĠM in
Ġmo de
Ġfin ales
t t
i x
Ġe vi
it antes
Ġper ten
Ġcam bi
ic amente
Â º
Ġper man
Ġdes a
m ar
Ġprincip ales
olu ciÃ³n
Ġbas e
Ġj u
Ġ ir
ĠLu is
Ġden omin
z os
ĠX V
Ġrecon oci
ĠFran cia
ĠG ar
Ġes tr
Ġacu erdo
as e
Ġdecl ar
Ġla do
Ġres pec
Ġproyec to
Ġmunicip io
ĠFran cis
Ġfu era
Ġso cial
Ġ19 1
isten cia
Ġlleg Ã³
ĠM or
m io
on o
ĠI I
Ãº tbol
Ġre fer
Ġcom par
m ientos
ad amente
m Ã¡n
Ġlo c
Ġn um
ĠP re
Ġmedi ante
ĠpaÃŃs es
if ica
Ġpues to
Ġcap ital
D e
ĠP la
Ġen car
Ġ201 2
p h
g ue
e ciÃ³
S u
Ġt he
Ġm or
Ġcer ca
omb res
le c
Ġpor que
Ġt Ã©cn
ĠD urante
ĠG ener
ra g
ĠJ a
us ti
Ġv a
Ġoc as
Ġ ig
ĠP ol
Ġrel ig
Ġ200 9
Ã¡ r
bi r
ĠMun dial
ĠEuro pa
Ġe m
l er
Ã© l
Ġ200 8
im o
Ġ .
k i
Ġestudi o
Ġsu f
Ġti tu
la z
minis tra
Ġgo bern
Ġd omin
o d
ĠAr gentina
r ad
im en
Ã¡ p
Ġre al
Ġ" "
Ġes p
Ġpo dr
Ġmu es
Ġv uel
ti ene
Ġ200 7
i ar
forma ciÃ³n
Ġcom pe
Ġs ino
Ġl en
um en
Ġ201 3
Ġna tural
i cia
mp re
ti a
is tro
Ġ201 5
Ġpro ceso
Ġan im
Ġof re
Ġlib ro
Ġcon ver
Ġprop ie
Ġj ue
f f
Ġigu al
Ġe t
iv a
ti o
Ġb lan
Ġconside ra
qui tec
Ġmujer es
ĠQ u
Ġmo der
b ur
b as
Ġa tra
Ġub ic
p as
Ġab and
Ġf ech
Ġ201 4
ĠAn ton
Ġincl uso
Ġmu cho
Ġar tis
Ġesti lo
m or
pues to
ĠRe pÃºblica
Ġo p
an as
Ġal rede
ĠS oci
Ġorig en
Ġinf lu
v ers
Ġemp le
Ġ ur
Ġre laciÃ³n
Ġcomp r
Ġes truc
Ġh ombres
Ġpun tos
i ales
Ġes tre
ar an
ĠâĢ Ķ
Ġex pres
ci r
Ġdi f
Ġcol or
Ġparti dos
en as
era ciÃ³n
eg Ãºn
ci endo
Ġins tal
b or
i la
Ġb ritÃ¡n
an za
re z
par tam
Ġm al
Ġins titu
bl es
ĠF ern
ĠFrancis co
b u
t l
Ġamb os
Ġfa vor
tr imon
l ad
ter o
Ġe jÃ©rcito
2 00
Ġs an
Ġmes es
Ġs Ã³lo
c le
Ġgru pos
ar do
Ġcam bio
Ġreci biÃ³
Ġind ustr
ĠpÃºbl ico
Ġ [
g n
Ġactu al
Ġp an
Ġs ab
Ġel em
Ġre un
k o
ĠJo hn
Ġofici al
ed ro
i ana
Ġimpor tantes
Ġr u
Ġe du
Ġ2 4
Ġser ÃŃa
ĠP rim
ÃŃ os
ente mente
Ġtr op
Ġdo cu
ĠDes puÃ©s
on e
ĠI g
ĠS er
Ġes tar
ĠT h
ĠT or
il lo
ĠÃºlti ma
Ġ200 6
t adas
u do
peona to
Ġf o
1 0
Ġhis tÃ³r
Ġnum eros
Ġ19 0
ĠCh ile
Ġe dad
ĠH er
ic k
tr Ã³
Ġre du
âĢ Ķ
b ar
Ġ tur
in ado
ĠM u
Ġfin almente
Ġsie mpre
Ġpos ible
ĠD o
Ġmiemb ro
Ġprop io
Ġterri torio
l l
n as
Ġprincip ios
Ġsen cil
ter min
ta gon
Ġo pera
Ġesta ban
e as
Ġcon di
cu encia
por te
Ġcon du
Ġi den
e v
Ġcab o
iz aciÃ³n
Ġdeb e
ve la
s os
i vo
er va
Ġse par
Ġg Ã©n
Ġpos e
ĠGener al
Ġmu chas
Ġtrad i
Ġo bl
Ġcaracter ÃŃs
ĠÃ¡ rea
c endi
Ġcu r
gres o
Ġsuper ior
Ġestu vo
Ġcom ba
Ġin vi
ĠT er
Ġcon ven
Ġcons erv
g ado
Ġespe cial
Ġenf ren
i res
Ġdis pu
Ġtele visiÃ³n
Ġres pon
al e
Ġd u
Ġm os
p l
ri a
on as
ĠY ork
ti z
ĠU na
Ġservi cio
ol a
ĠC i
Ġllam ada
g er
Ġpos iciÃ³n
ĠP res
Ġhab itantes
Ġse x
Ġf re
Ġencuen tran
om ÃŃa
Ġ201 6
Ġsigu ientes
di os
Ġar quitec
Ġa cep
ig h
Ġes cu
ens o
Ġel lo
Ġa Ãºn
l Ã©s
Ġcuer po
Ġc Ã³
v ÃŃa
ĠtÃ©r m
in aciÃ³n
ĠIn terna
ab les
Ġc ine
Ġcol ec
c am
Ġe ven
ĠS i
cia ciÃ³n
ĠX I
ĠR eg
Ġcam po
ĠEs to
Ġ w
Ġig lesia
Ġcor res
d ar
d ra
man ia
Ġfuer zas
vi er
ur as
D urante
ti fic
if icaciÃ³n
ĠP edro
ĠRe al
m ento
en ci
Ġep iso
Ġse is
Ġempres a
Ġs ac
am eric
Ġeje cu
Ġedifici o
Ġalrede dor
Ġj o
m ano
Ġorigin al
di co
Ġpr Ã¡c
m it
Ġemp ez
ra ciÃ³n
Ġcual quier
ac k
Ġso ci
ĠPar tido
Ġmovi miento
os p
us iÃ³n
ĠB er
Ġk m
Ġex tra
Ġprincip almente
Ġestadouniden se
i te
gra fÃŃa
Ã© tica
Ã©n dose
Ġconj unto
Ġper ÃŃo
di eron
in s
Ġpr omo
Ġ2 2
U n
ĠA d
Ġ2 1
iz a
ÃŃ gen
Ġfun cion
trimon io
Ġis la
mp er
Ġay ud
ien e
Ġca teg
ĠT a
ĠR os
Ġa de
ol o
Ġm adre
ci da
ar e
Ġcan ciones
ĠAnton io
Ġprim ero
Ġparti cular
Ġa do
Ġaband on
Ġar te
c Ã©s
Ġpal ab
ĠT ra
ĠT ras
lan d
Ġconoci da
Ġ2 3
ĠAm Ã©rica
Ġr en
Ġba talla
Ġme tros
Ġc ivil
Ġ200 5
em en
im iento
Ġ18 9
p an
l y
ĠcompaÃ± ÃŃa
ĠV en
Ġen fer
or ge
Ġre cor
Ġelec ciones
Ġdeci r
ĠA ires
ĠF in
ri dad
Ġse c
gu as
Ġa ten
es a
ar ias
Ġdes tru
Ġ 0
Ġpas Ã³
Ġ201 7
Ġres to
ĠIn stitu
Ġan d
Ġp l
h u
Ġh on
ĠCl ub
Ġi ma
Ġr Ã¡p
y Ã³
ĠEn tre
ti en
Ġcol abor
Ġre tir
ec er
Ġrealiz Ã³
Ġing lÃ©s
1 5
a te
di r
Ġmo do
Ã¡n do
le g
Ġes pos
" ),
Ġsign ifica
es e
ier ra
Ġresul tado
ĠH ar
Ġpos teriormente
il es
ĠV ic
Ġv ide
ĠCon s
Ġd ar
Ġvi ol
i am
b el
I n
ĠS us
Ġinter ior
Ġpro b
Ġau to
ri r
Ġpres enta
v el
ul s
us to
1 7
A n
re as
Ġrela cion
Ġde termin
Ġcom b
Ġ20 00
Ġ '
ĠCu ando
Ġapo yo
Ġde m
Ġter c
Ġl im
gu ay
un ca
ta ble
II I
Ġespeci almente
ĠCo pa
ar ca
ĠtÃ©rm ino
d ado
Ġl ar
Ġgan Ã³
tro du
lar es
Ġcen tral
de ro
Ġte x
Ġf ra
Ġcom Ãºn
Ġinterna cional
Ġg ri
Ġ201 8
ĠP r
Ġdi ce
Ġdesarrol l
Ġhi jos
de z
Ġcon ci
Ġad ministra
Ġfran ces
ĠB el
ĠRe ino
c r
ĠD iv
Ġel im
Ġpr ue
ĠS ur
Ġequi pos
Ġcon ten
es tiv
t un
Ġdis pon
qu is
ĠÃºn ico
Ġpa tr
ĠpolÃŃ tico
ĠBu enos
Ã³n ica
Ġcon te
Ġte ma
t ÃŃf
Ġse ctor
Ġcons igu
Ã© m
Ġ ital
Ġfuer te
Ġpos terior
Ġdire cciÃ³n
ĠAle mania
Ġfun dad
ĠC ris
Ġpro tagon
x ic
partam ento
y s
Ġmen cion
Ġp ens
Ġc ri
Ġpro por
aliz aciÃ³n
ĠperÃŃo do
ĠI tal
ĠCom o
til lo
i ado
Ġhom bre
uro pe
Ġespeci es
Ġproble mas
Ġin cor
i ro
l io
Ġmus ical
Ġcu ad
Ġtr i
Ġ18 8
Ġpro ce
Ġ2 6
Ġtras lad
Ġ os
ĠA c
an cia
Ġ2 8
5 0
Ġse a
Ġsi mp
ĠUn iÃ³n
Ġj ef
Ġocu p
Ġrepres enta
le y
dad os
Ġvia j
ib er
Ġrelig ios
Ġho y
ĠSe gun
Ġ1 00
Ġse cre
Ġal ta
Ġal to
ĠDes de
is tr
Ġsitu aciÃ³n
Ġhis tor
Ġ2 7
da ciÃ³n
. "
Ġincluy endo
Ġfech a
Ġtier ra
Ġlleg ar
Ġentr en
um ento
Ġapro xim
Ġdi vi
f on
Ġpro te
ĠNor te
ĠF or
Ġa gr
Ġh u
ÃŃcu lo
Ġp on
ta ciones
am os
Ġo cur
Ġllev Ã³
se gu
Ġinvestig aciÃ³n
Ġnuev os
u dades
Ġin formaciÃ³n
an to
es t
Ġpos i
Ġpas o
b al
Ġv ÃŃ
c ra
Ġob tuvo
Ġher mano
Ġab s
Ġf Ãºtbol
Ġin trodu
ĠP os
ĠX X
Ġhi ja
P or
Ġv ir
ĠG e
Ġesc uela
vi du
Ġsuper fici
Ġac om
ol e
Ġen vi
om as
ar Ã¡
Ġf irm
Ġespa cio
Ġactivi dad
il las
f ica
cu lo
Ġp en
ĠC ab
Ġvide o
Ġjo ven
Ġne go
Ġes per
Ġp uer
Ġpos ib
p ciÃ³n
Ġcan dida
1 6
Ġ200 4
Ġse de
Ġcre aciÃ³n
ĠMan uel
ad io
Ġel las
Ġfr on
Ġedi ciÃ³n
Ġprimer as
Ġprop ia
Ġci udades
ĠCi udad
ĠF a
Ġcan tidad
ri do
t y
tia go
Ġre cur
ĠgÃ©n ero
l in
Ġperson aje
Ġpre par
Ġn unca
Ġpar e
' s
Ġ Ã³r
Ġpro vo
Ġnombr ado
Ġobl ig
1 2
Ġinte gr
Ġdi jo
ĠB an
Ġcon ce
ter ÃŃa
Ġtrop as
Ġorganiz aciÃ³n
Ġar m
Ġmode lo
n er
Ġex tre
Ġac er
Ġ18 7
ber t
ĠCon se
ĠMar tÃŃn
Ġmin u
Ġe ta
Ġincor por
tu almente
tar se
Ġforma ciÃ³n
v as
Ġindi vidu
ec en
Ġobje tivo
ten cia
Ġcal le
Ġlogr Ã³
e y
ir ma
w n
Ġespeci e
Ġal lÃŃ
Ġfran cÃ©s
Ġe urope
Ġra z
Ġ18 6
Ġa tr
Ġal go
Â °
Ġservi cios
ue lo
qu ÃŃ
g Ã³
c ada
Ġen erg
men tos
Ġmen or
ig os
Ġ201 9
Ġde por
Ġli bre
h am
ran do
man as
Ġun as
Ġs ir
Ã¡ tico
tur ales
Ġperson al
o u
Ġrev ista
Ġantigu o
Ġe jer
cel ona
ĠIn g
Ġf Ã¡
Ġdere cho
Ġdeci diÃ³
ĠI mper
Ġval or
Ġah ora
tr iz
Ġ ib
. ,
Ġnuev as
Ġpro ces
ĠJ un
ĠV ir
me dia
ĠG al
ĠA ustr
P ara
Ġcam paÃ±a
w a
Ġfuer za
ber to
f t
tu al
ĠInterna cional
Ġdise Ã±
Ġin form
ĠB en
Ġcon cep
Ġor ien
Ġa fec
de l
Ġg as
Ġm ul
Ġf on
r Ã³
Ġcele br
ĠItal ia
Ġelem entos
Ġvic toria
Ġet c
ĠG ra
ĠS te
ter n
Ġb al
T ras
i amente
.. .
Ġacom paÃ±
Ġapar ece
Ġd in
Ġpres encia
ĠDiv isiÃ³n
Ġda tos
estiv al
itu d
ÃŃs tica
Ġjug ador
ĠP as
p le
ĠseÃ± al
de o
ĠEs c
ĠSegun da
Ġcorres pon
Ġpres iden
Ġ5 0
ĠespaÃ±ol a
Ġdivers os
titu d
Ġdise Ã±o
Ġmon ta
Ġte mas
C u
di endo
ĠÃºlti mos
ien cia
Ġpr on
Ġpar tes
Ġa vi
Ġanun ciÃ³
Ġcol o
ĠH is
Ġqu in
Ġ Ã©s
Ġtra ta
ĠM ay
Ġcien tÃŃf
on da
Ġay uda
Ã© tico
Ġsencil lo
ig uel
ĠGo bierno
Ġl ista
ĠB ol
Ġcas os
tor ios
Ġin gres
Ġf ac
ĠA u
Ġcapa cidad
ter ra
ri que
ĠR us
ĠPar ÃŃs
Ġo este
t ÃŃa
tu s
ĠIg lesia
ĠS ol
ĠSan tiago
19 9
Ġmues tra
Ġdesa par
ÃŃcu los
m er
Ġactivi dades
Ġdere chos
se Ã±
Ġpublic Ã³
ĠD u
lan te
Ġlocal idad
Ġvol viÃ³
Ġc ru
Ġperson ajes
Ġcris ti
Ġl ig
Ġrealiz ar
ĠT e
Ġex isten
Ġcaus a
Ġ2 9
Ġ il
ĠInstitu to
Ġperio do
Des de
Ġ200 3
Ġparticip Ã³
Ġdistr ibu
Ġinde pendi
ĠCen tro
f e
Ġf ab
Ãº a
ĠD an
Ġma es
Ġa z
Ġcol on
Ġobs erv
Ġdes emp
ĠP ero
Ġprincip io
ĠB e
ĠM er
3 0
Ġf alle
ĠE du
dem ia
Ġima gen
r ica
pe Ã³n
b res
Ã© g
Ġdi cho
Ġpr ome
ec re
Ġcor re
me tros
Ġre d
ĠBar celona
ĠP al
Ġdescu b
Ġtor n
Ġte c
N o
Ġquien es
ĠR am
Ġno che
in es
Ġj ur
Ġpodr ÃŃa
Ġcomun idad
Ġsoci edad
1 4
til la
F ue
Ġter cer
Ġna ciÃ³
Ġm it
le cciÃ³n
U na
Ġes ca
r ÃŃa
ĠW ill
Ġperson a
Ġb or
gun a
ĠSu per
Ġf ÃŃs
pen dencia
ĠM il
ciden tal
ĠE jÃ©rcito
Ġin m
Ġdes p
Ġgra cias
Ġescri biÃ³
n es
Ġform ula
ĠConse jo
ĠPrim era
Ġman ten
r endi
ar lo
Ġgran de
Ġm ando
Ġz onas
Ġpu do
Ġcateg orÃŃa
ĠM iguel
it as
tar ios
Ġsu ces
Ġactu almente
b ia
da p
Ġ Ã³
Ġmedi os
Ġepiso dio
tic amente
Ġlu cha
r or
Ġestruc tura
ir se
o k
ĠL ond
di ca
Ġdifer encia
ĠL iga
Ġni Ã±os
Ġac ab
Ġpri v
ĠJ es
Ġa bier
Ġrespon s
Ġapro b
la ciones
Ġrad io
Ã¡ g
Ġelec tr
Ġcul tura
Ġqued Ã³
y e
Ġv enta
ĠO l
ĠPer Ãº
Ġre co
Ġo tor
il i
den te
h an
Ġe v
ĠÃºn ica
au gu
esti Ã³n
ĠRe y
ĠJ ap
in ar
Ġpeque Ã±o
Ġvar i
Ġespos a
Ġmedi a
ch es
Ġe mi
i j
ĠM al
vi d
Ġfin an
Ġaproxim adamente
Ġmit ad
ĠâĢ ĵ
ÃŃs tico
ul as
r Ã¡n
Ġa dap
ĠNe w
ĠB ro
Ġpartici paciÃ³n
ti da
Ġesta ciÃ³n
Ġeleg ido
Ġinter es
Ġ iz
Ġmedi da
Ġob ten
eg a
Ġsi tio
Ġfin aliz
Ġin augu
Ġdivers as
v os
Ġse m
Ġta ma
it y
ala cio
Ġman if
Ã¡ tica
Ġf igu
ib uy
Ġre emp
ĠB ras
1 3
ĠC os
ic ÃŃa
Ġ200 2
Ġ im
Ġve lo
Ġprof un
Ġcu yo
Ġlu z
ÃŃ m
cep ciÃ³n
al la
ic e
Ġten ÃŃan
la terra
Ġ ol
ĠO s
Ġcl Ã¡s
ĠUn ido
en Ã³
ĠA unque
Ġg ira
ti eron
Ġmos tr
ĠH u
r ar
ul tura
Ġmer cado
p s
is po
Ġres ta
ĠR ec
Ġconver tir
ĠXI X
Ġtec n
ĠÃģ n
Ġhor as
ĠD i
Ġjef e
d Ã³
Ġe r
Ġata que
Ġterc era
t ador
Ġ200 1
Ġc lar
Des puÃ©s
Ġpla ta
ci en
f i
Ġcu mpl
Ġsim ilar
Ġenerg ÃŃa
it ario
Ġprodu ctor
Ġsuperfici e
Ġpartici par
Ġmen udo
to do
Ġ199 0
Ġiz quier
Ġinflu encia
ĠI II
Ġar mas
g al
Ġpermi te
ĠAs ÃŃ
ĠFern ando
Ġanti gua
Ġsus titu
k er
Ġapo y
c ando
on el
di ciÃ³n
Ġre cha
Ġma trimonio
ĠIng laterra
Ġcan tante
Ġlu ch
Ġac ciÃ³n
tu ro
l en
ĠR u
ĠEsc uela
Ġclas e
cur so
Ġdes ta
Ġpropor cion
ĠA b
tor ial
ĠM as
ĠS egÃºn
Ġenfer me
gu ir
Ġn in
Ġhon or
ĠÃ ī
Ġad qui
Ã¡m ara
omb ia
Ġconci er
Ġno vela
ĠT ri
ici o
Ġsie te
ian za
ciden te
Ġ4 0
Ġfun ciÃ³n
Ġor o
ier e
Ġcam p
am e
Ġocas iones
Ġimpor tancia
r in
it Ã¡n
Ġtorn eo
1 1
Ġinter Ã©s
Ġre ac
Ġrespec to
ĠA ca
Ġme xic
Ġide a
h er
En tre
ĠM ich
cl am
f icaciÃ³n
Ġc la
Ġpublic ado
Ġde mos
Ġm ec
ĠFe der
Ġnor m
ĠImper io
a t
Ġtrabaj os
d ÃŃan
Ġv endi
Ġt ales
Ġtrad u
xim o
tu d
ĠCom un
al ia
ĠS ch
Ġcondi ciones
ĠcaracterÃŃs ticas
Ġh ici
ti endo
ĠO ri
man os
den a
Ġtama Ã±o
Ġn u
ĠG on
Ġg al
Ġam or
ĠpelÃŃcu las
l la
ĠB al
Ġlib ros
p ir
ĠLond res
âĢĿ ,
Ġdesemp e
Ġde ri
b la
Ġlle va
Ġpeque Ã±a
Ġ &
Ġdes con
ub o
Ġconf lic
te ca
Ġartis tas
Ġmater ial
as h
âĢ Ļ
ĠF uer
" ).
Ġa umen
ad res
Ġmedi ados
ran tes
Ġcom posi
ĠH e
Ġas pec
Ġedu caciÃ³n
ĠN ic
Ġtier ras
Ġactu alidad
Ġrela ciones
Ġplan ta
ĠG re
ĠD er
el i
Ġincluy e
Ġmej ores
ĠP an
ĠJap Ã³n
Ã¡c ter
Ġal tura
Ġprob able
grÃ¡f ica
Ġcu ya
Ġencontr ar
qu il
Ġescri tor
qu ia
Ġcam ino
Ġprofes or
ĠMus eo
ĠM c
ĠCol ombia
s es
Ġrecu per
j ar
ĠCon greso
Ġale mÃ¡n
Ġcab eza
Ġclas ific
ĠC ruz
Ġdej Ã³
Ġre alidad
Ġcar Ã¡cter
ci na
Ġs os
Ġcon cl
Ġte atro
us e
ĠÃģn gel
to l
Ġd ado
ib lio
Ġdi ez
ĠCa p
Ã©c tr
Ġsu ce
is terio
Ġprofes ional
ĠT ur
lo g
Ġen em
ĠM Ã¡s
ĠCh ar
x ima
ĠCa tal
Ġcal idad
ci dos
Ġex tran
Ġter ren
ĠBras il
ĠEs tos
Ġ18 4
ab lo
bl os
Ġeta pa
osp ital
Ġin media
it an
tis ta
is is
s tru
c ados
Ġjug adores
Ġdiv isiÃ³n
Ġn ar
Ġmun dial
Ġpresen tÃ³
Ġmu riÃ³
Ġd on
t ÃŃ
Ġj ud
Ġp i
ĠL uego
is a
ĠÃ¡ r
ĠG a
Ġgobern ador
im e
Ġes tra
Ġsimp le
ĠE d
Ġdi cha
Ġes f
Ġv an
Ã³ l
as a
gun os
Ġfo to
de res
s i
A r
fer encia
ven es
u ales
ic ales
Ġdes ign
Ġfund am
ĠCh ina
Ġcos ta
Ġcom e
Ã³ venes
Ġacu s
on te
Ġcre ar
Ġmo di
ĠF o
Ġbaj a
Ġmilitar es
ri os
] ]
Ġm ano
ech o
âĢ ĵ
Ġex cl
Ġin gen
Ġsiste mas
ĠD el
p al
Ġcer c
Ã ¶
Ġtoda vÃŃa
Ġv ig
ĠB ur
ĠR ÃŃo
cu los
Ġso ciales
eg io
Ġlugar es
Ġman os
iv os
ĠLe Ã³n
ĠD on
in i
Ġcono ce
Ġcomba te
Ġnuev amente
ri eron
ie dad
ĠT u
Ġref le
c la
19 8
Ġman tener
c to
ĠR om
Ġo cho
ĠR oma
Ġfigu ra
ĠCon stitu
ues tra
il Ã³
Ġ199 9
ĠGar cÃŃa
Ġcomien za
olu cion
Ġdi c
am es
k s
Ġre par
Ġsen tido
Ġse mana
Ġ ran
Ġme z
fer ior
Ġ18 5
Ġfinan ci
is iones
Ġtermin Ã³
Ġproduc tos
Ġ198 0
ĠP u
Ġado p
Ġus u
t z
ion ales
) ;
Ġa v
âĢĿ .
Ġentr ada
ĠVen ez
ĠD is
Ġsegu ridad
ĠJ er
Ġas um
Ġm ol
Ġob tener
olÃ³g ico
s u
ĠK a
d an
Ġimp er
Ġb os
id amente
gen tino
Ġtrabaj ar
Ġres iden
Ġmin istro
Ġins tr
Ġevi tar
en n
ĠR es
in al
ura ciÃ³n
ur os
w s
Ġinici Ã³
Ġminu tos
Ġac ceso
Ġes cul
Ġca tÃ³
ĠT ierra
or g
Ġloc ales
Ġtemp era
tar ia
Ġcan al
es iÃ³n
ĠH ol
ĠRe v
bl ic
Ġo per
ne y
Ġform ar
y os
Ġas oci
Ġl ong
le z
Ġcomp on
ĠS on
Ġgol pe
Ġsol dados
Ġpre mio
gen es
Ġpropie dad
ĠV er
Ġm i
ĠD ire
ĠLe y
ĠPre mio
Ġsig ue
ĠT om
Ġc ic
Ã¡n dez
Ġver ano
y n
pro du
ay a
ue gos
ab ilidad
Ġa men
Ġcu en
if orn
ci ente
Ġres tos
Ġrefer encia
ing Ãºn
Ġs or
Ġv ista
Ġper iÃ³
Ġen seÃ±
Ġfor mas
ĠV illa
dera ciÃ³n
an e
Ġpro teg
o od
Ġcomer cial
Ġin ferior
am o
Ġcor ri
ĠGon z
Ġf ase
Ġdefin i
Ġincluy en
ÃŃf ico
Ġsol ici
Ġcon tac
Ġdef ensa
Â ª
Ġaf irm
Ġempres as
Ġmo tor
Ġdes tin
Ġfal ta
mp or
z Ã³
u ri
Ġa tac
em os
d on
Ġ on
Ġj Ã³venes
Ġconsider ado
Ġun idades
Ġ199 8
Ġte orÃŃa
Ġsec und
Ġa segu
Ġpo bl
ad Ã¡
Ġgu itar
Ġprodu jo
Ġempez Ã³
por tun
ĠD ie
Ġf ies
ĠcÃ³ mo
ĠT ele
Ġcele bra
c ab
s en
j es
Ġgu ar
te dr
Ġc el
Ġse lecciÃ³n
Ġpo dÃŃa
Ġg r
man es
gen cia
aj a
Ġex iste
ra el
ĠWill iam
Ġcambi os
c enso
un tos
igh t
Ġlanz Ã³
Ġa ire
Ġl ec
Ġcompe ti
Ġin icia
Ġd Ã³
ĠlÃŃ der
Ġb ene
Ġ3 1
ill er
Ġve h
al o
it ado
Ġle van
ĠCen tral
Ġcon cen
Ġnumeros os
Ġmay ores
Ġcre Ã³
Ġpla za
Ġdistr ito
C omo
Ġcor te
Ġjue gos
Ġel ev
ĠpÃºbl ica
Ġvol ver
quier e
Ġgener almente
Ġse lec
ĠCam peonato
ĠDa vid
ĠF er
tal l
tar ÃŃa
ĠF il
k y
N a
Ġv io
is ion
iv e
Ġdis par
ens iÃ³n
Ġl ic
ĠCh ris
qu ÃŃa
Ġresul tados
Ġc e
Ġprogra mas
e os
or o
ven ciÃ³n
usti cia
Ġo portun
Ġsal ud
b ano
Ġna v
ĠÃ¡ reas
ĠlÃŃ mi
c ta
Ġn ingÃºn
Ġme mor
am Ã©rica
Ġt re
Ġcu anto
ĠL i
Ġla bor
Ġg rad
Ġmar ca
Ġdi pu
Ġhum anos
Ġ197 0
Ġav anz
Ġal im
ien cias
Ġanterior es
a g
Ġperio dis
Ġse l
Ġbar rio
ti dos
Ġf erro
ĠVenez uela
ĠAr m
iforn ia
ia ciÃ³n
is s
R e
S A
Ġartis ta
Ġre bel
Ġf lu
ber g
lan o
Ġa di
Ġg ente
Ġtu vieron
Ġp adres
Ġen ter
Ġ20 20
j u
Ġvo z
Ġcam peÃ³n
Ġvelo cidad
Ġimp res
ĠD omin
Ã³ vil
Ġan o
b y
Ġsur g
aliz ado
Ġal ma
Ġex terior
Ġg uer
Ġb re
Ġvia je
t adores
Ġes o
Ġ18 2
Ġc ruz
Ġfin es
ĠPro vin
Ġen s
Ġco p
ĠM ientras
g ada
Ġal cal
w ard
Ġher manos
Ġa ven
Ġextran j
C h
Ġ18 3
tor no
Ġde mo
Ġ6 0
Ġdi g
ib les
Ġli ter
is la
pe z
Ġf an
Ġconsigu iÃ³
l ores
it Ã©
Ġinici o
ĠD ios
Ġefec to
Ġpue blos
z ado
Ġrealiz ado
Ġj ugar
ar o
Ġutiliz a
Ġamb as
qu ista
Ġp ilo
ĠA y
Ġar ch
un g
Ġapar eciÃ³
Ġofici ales
Ġcontra to
Ġlong itud
Ġobs tante
Ġt oma
Ġpas ado
ica ciones
or m
Ġiden tific
Ġser Ã¡
Ġvuel ta
Ġlanz amiento
Ġlleg ada
Ġsign ific
l i
ue las
Ġpo ten
Ġcomun icaciÃ³n
Ġ199 6
Ġindustr ia
ac to
Ġtrabaj Ã³
Ġbu ena
m ios
" "
ĠAn d
Ġpose e
ĠC la
Ġdem Ã¡s
ĠespaÃ±ol es
ar t
Ġcon vo
ĠE m
Ġanim ales
ĠEs paÃ±ol
Ġcar re
Ġblan co
am ble
Ġencontr aba
Ġconf irm
Ġpo cos
ĠH en
S an
Ġ199 7
Ġcuar to
Ġde ber
Ġmunicip al
T ambiÃ©n
ĠlÃŃn eas
Ġel abor
ĠPres idente
tor ias
Ġcom and
Ġac tor
Ġd ra
r Ã³n
ci pe
Ã¡l isis
mÃ¡ tica
Ġca tal
Ġcul tural
Ġform Ã³
ĠAca demia
Ġde partamento
tin g
Ġhici eron
Ġha ciendo
Ġf ru
ĠEn rique
Ġplan tas
d ores
Es ta
Ġ199 5
Â «
gen tes
Ġreg ular
ĠÃ¡r bol
Ġcre cimiento
Ġllev ar
ti g
ĠF lor
Ġlanz ado
Ġcen tr
Ġti pos
Ġpol icÃŃa
Ġb el
ĠdÃ³ lares
Ġtradi cional
ĠO b
Ġex pe
Ġmanif es
t le
ĠJ orge
v ador
Ġh e
us ta
Ġaten ciÃ³n
Ġk ilÃ³
tera tura
Ġadministra ciÃ³n
ing ton
ab e
Ġap lic
or e
ĠL iber
ĠP op
ĠF re
Ġi di
ĠEs tu
Ġlen gua
ĠE r
Ġar gu
Ġcu bier
Ġtom Ã³
ist ente
Ġtom ar
ĠF u
Ġar ro
ĠA g
Ġman tuvo
i ados
Ġperten eci
Ġpas ar
ĠpolÃŃ ticos
ĠRus ia
ĠCas a
Ġb Ã¡s
M ar
ĠpolÃŃ ticas
Ġfre cu
Ġ199 4
Ġgol es
im ismo
Ġver da
Ġpalab ras
ĠF estival
Â ²
ĠMon te
Ġdif ÃŃ
Ġsu fici
Ġdin ero
Ġex istencia
Ġgan ar
Ġb lo
Ġemp er
r ada
Ġ199 2
Ġre pu
Ġb omb
f re
un ci
n i
Ġel Ã©ctr
c Ã¡n
ĠB re
ĠL in
ĠS am
Ġdirig ida
e go
ru po
ĠCal ifornia
Ġin cre
ÃŃn cipe
ĠIn ter
s h
Ġa us
es ta
ĠJes Ãºs
19 7
ur al
4 0
Ġecon omÃŃa
ĠJ e
S egÃºn
Ġfab ric
Ġpr Ã³
Ġn os
Ġpeque Ã±os
Ġind ÃŃgen
ra c
Ġma dera
ĠP ue
Ġcono cer
lo ta
Ġutiliz ado
b os
Ġpar ece
Ġper s
Ġfun ciones
Es te
ĠSe Ã±
Ġdistin tos
bur go
Ġv in
g in
ĠCas tilla
ĠB as
Ġsu m
6 0
an da
Ġam bi
ĠI V
ĠMun icip
en se
Ġal gÃºn
Ġ8 0
Ġa guas
Ġp uerto
iz ar
ĠPos teriormente
ĠP ablo
Ġh ubo
Ġalgun a
ter as
Ġesc en
Ġautor idades
Ġcam peonato
ĠprÃ¡c tica
Ġescri to
Ġtrad iciÃ³n
y as
ĠMa g
Ġtiemp os
ĠH um
Ġnumeros as
Ġas o
il ares
ĠMin isterio
grÃ¡f ico
Ġlo g
Ġtr ib
m enta
Ġpar que
Ġpalab ra
Ã©n do
ĠW il
b il
Ġlle ga
lam ento
Ã³ pez
ĠT ea
Ġdi bu
Ġno ti
lam en
Ġam igo
gue z
Ġpro tes
Ġedifici os
Ġp s
ra m
Ġesc ena
tra ciÃ³n
Ġtemp lo
ĠSoci al
Ġrealiz a
Ġb ol
Ġdeclar Ã³
Ġcir c
Ġ196 0
Ġch il
ĠeconÃ³m ica
Ġ199 1
Ġac ciones
ici dad
c ti
ran o
Ġdeb ut
e tas
hi bi
Ġart ÃŃculo
ĠDe por
ĠW al
olÃ³g ica
ĠM i
men es
Ġcontinu Ã³
Ġun idad
ĠA z
Ġm ens
di cos
Ġt es
fon so
Ġefec tos
iz ada
or me
ad Ã©m
ĠU r
en d
ec ÃŃa
A s
Ġconse cuencia
Ġf emen
g ip
ĠEuro pe
Ġ[ [
or ÃŃas
Ġproble ma
Ġdo ble
Ġestudi antes
il idades
es o
Ġm ad
Ġpie dra
c ciones
ĠV alle
Ġcol um
Ġv as
Ġ /
Ġjug Ã³
Ġnin guna
Ġal um
tr ic
Ġinf an
us a
Ġcir cu
eli pe
Ġrecur sos
Ġeven to
Ġesf uer
Ġalcanz Ã³
Ġcon ec
Ġro de
l icaciÃ³n
Ġdocu men
Ġis las
v ech
is mos
Ġv ÃŃa
Ġdeci siÃ³n
so ciaciÃ³n
ĠrÃ¡p idamente
Ġinterna cionales
ĠL Ã³pez
Ġsegu ir
Å į
Ġau tom
Cu ando
Ġdef ens
ĠcrÃŃ tica
Ã©g imen
and ro
Ã³n imo
Ġcas tillo
Ġfu ente
ĠEs tas
Ġdo ctor
ĠF un
Ġcre ado
Ġizquier da
Ġdistin tas
Ġra ÃŃ
Ġve in
pues tas
Ġobje to
Ġliber tad
Ã³r do
Ġfamil ias
tan cias
Ġg rado
ĠS en
ab el
p Ã³
Ġas en
ĠI r
Ġgrad u
un s
ĠA mb
Ġd an
Ġfu turo
Ġde ten
ÃŃ da
Ġv ie
dr ÃŃa
ĠB lan
Ġfrances a
Ġcon tiene
all er
Ġproyec tos
ch i
Ġm ic
Ġcomple to
Ã ¨
Ġ199 3
ĠPa tr
Ġhistor i
Ã³n ico
il io
ÃŃ r
Ġacer ca
Ġdesempe Ã±
Ġp Ã©r
ĠB or
ĠO c
l d
ĠA tl
Ġar tes
pues tos
Ġtrans porte
ĠaÃ± ad
Ġfu entes
Ġdo c
Ġdeb u
ĠG er
Ġnatural eza
Ġpermi tiÃ³
Ġcon vier
Ġn ie
Ġemper ador
N A
ti les
tis mo
Ġbene fici
Ġpel ig
iz ado
Ġar que
ĠMe di
ho w
m ina
Ġs ens
Ġg eo
l ada
c omo
ar i
Ġau tores
u Ã±a
ec a
ĠkilÃ³ metros
ĠS il
Ġprue ba
am ento
for me
Ġhac en
o cu
Ġtitu lar
Ġg e
ĠP uerto
it Ã³
Ġconcep to
Ġau di
Ã¡ genes
Ġcap tur
ĠSu d
Ġcomer ci
v illa
s iones
Ġraz Ã³n
ter os
Ġsitu ado
th er
amble a
Ġprue bas
ĠF elipe
Ġbas tante
2 5
Ġvo tos
ĠPa ul
Ġestable ciÃ³
Ġdeb en
Ġos cu
Ġcris is
Ġf ig
ÃŃ tu
in t
Ġcolec ciÃ³n
Ġm isiÃ³n
Ġdirec tamente
ĠL or
ĠR ich
Ġim Ã¡genes
Ġexper iencia
Ġsol u
ĠCom isiÃ³n
Ġve ci
Ġd Ã©
Ġindependi ente
ĠM os
Ġse manas
Ġpres ente
ĠbritÃ¡n ico
os os
ĠB ra
Ġcap itÃ¡n
ĠV i
ĠhistÃ³r ico
Ġas is
Ġper diÃ³
ĠH ab
ĠR iv
ĠtÃ©cn ica
Ġre ino
C A
Ġaquel los
Ġsig los
Ġinv as
Ġde pen
tivi dad
Ġregres Ã³
Ġna cionales
ĠS ecre
Ġac triz
Ġde cre
E x
ĠB ea
er an
Ġr as
Ġm m
Ġprobable mente
Ġsue lo
r eras
tan a
Ã³rdo ba
v io
ĠM en
tin os
re y
Ġsu p
Ġf us
Ġenferme dad
tedr al
Ġdeci de
ĠV il
Ġconstru ir
Ġfue go
Ġte l
Ġin teg
Ġtor re
w e
Ġsobre vi
ĠOr den
t n
Ġpas a
ĠP lan
iv amente
ol d
Ġper mit
Ġn ada
Ġres puesta
Ġ qui
ero p
T o
ter s
Ġreemp laz
ĠAn dr
Ġdere cha
for d
C ar
Ġcon de
Ġw eb
Ġcomenz aron
Ġderro ta
Ã¡ ticos
Ġlleg aron
Ġtex to
Ġ7 0
Ġ198 9
Ġhab la
ĠP h
ĠSan to
Ġam ar
ĠtÃŃ p
in d
Ġar gentino
ĠseÃ± or
ĠY a
Ġases ina
Ã¡ lez
Ġes os
Ġus ar
Ġital iano
z an
Ġpeque Ã±as
Ġvers iones
Ġpar ro
den tes
Ġar ri
ĠÃ¡ ra
Ġexcl us
Ġcomer cio
Ġp Ã¡g
Ġubic ado
Ġvol un
Ġr onda
Ġhab itu
Ġmis mos
Ġllam a
Ġprodu ce
Ġinde pendencia
Ġun iÃ³
v aciÃ³n
om en
v ista
Ġsal ida
Ġca Ã±
Ġtri un
ie lo
Ġdis tancia
Ġde man
M a
ĠB ri
Ġpre gun
Ġrev el
Ġapar iciÃ³n
ĠFin almente
ĠB ern
Ġam igos
Ġre com
Ġcas as
itar ia
l las
Ġconse guir
Ġson ido
Ġneg ro
Ġlar ga
ci eron
Ġro ck
tion al
Ġpron to
aliz ada
H a
Ġopera ciones
ĠAle j
ĠTea tro
ĠCos ta
Ġ18 0
S in
min os
ĠF Ãºtbol
gra f
ĠVir gen
Ġqu Ã©
Ġreg iones
ĠA sociaciÃ³n
Ġor gan
ĠAr tes
ĠQ ue
am ientos
mpor Ã¡n
ĠJ ames
lan des
ĠH ay
Ġnom bres
Ġh og
Ġ $
al d
tor al
ta ban
Ġju ven
cion almente
Ġca dena
ĠGonz Ã¡lez
ĠnÃº cle
ist ÃŃa
Ġher mana
Ġclas es
tam ientos
f rica
tien en
di go
8 0
f il
Ġelec ciÃ³n
Ġconflic to
Ġs il
Ġvar iedad
Ġcomple tamente
an ÃŃa
ĠB os
per tura
f ac
Ġprodu cir
Ġcre a
ĠVal encia
un tamiento
Ġade lante
til l
Ġapro vech
Ġing les
am p
ĠC ivil
Ġpubl icaciÃ³n
Ġreg istr
Ġab og
Ġpr ensa
ul l
i anos
Ġop in
iblio teca
ter rÃ¡n
Ġ Ã¡n
ĠIn dia
rag Ã³n
Ġinv ers
ran s
Ġtr en
Ġreconoci miento
Ġpre ten
Ġ9 0
ĠAustr alia
dr ÃŃ
e da
ĠW ar
A demÃ¡s
Ġform ado
ĠA na
en tales
den es
ord in
Ġfon do
w ay
ĠAl fonso
gr ado
Ġcon den
ÃŃ col
Ġt esti
r us
f ra
Ġconstru ido
Ġs uel
in ta
Ġnivel es
Ã© rez
Ġan Ã¡lisis
um entos
es ÃŃa
Ġdis min
Ġten ido
ĠC Ã³rdoba
Ġpie zas
ĠJ ack
B C
ci mientos
Ġac adÃ©m
Ġtrans mi
ĠPor tu
Ġli teratura
Ġal terna
tr on
ÃŃ do
ĠXV III
ĠtÃŃtu los
Ġcos as
Ġpre cis
Ġeven tos
Ġmo tivo
s ula
Ġcab al
ĠSoci edad
Ġconoci miento
a el
P ar
Ġa gu
Ġcar ta
Ġfun daciÃ³n
Ġex ig
Ġneces idad
ad al
r om
Ġposib ilidad
Ġest ados
Ġregres o
Ġpin tura
ul os
Ġsu g
ĠJ ul
Ġr Ã©gimen
Ġactu aciÃ³n
bi to
oso fÃŃa
Ġobje tos
Ġl iga
Ġ ÃŃn
Ġutiliz ar
Ġag ru
Ġmater iales
Ġr um
Ġantigu os
ĠtÃ©r minos
Ġr endi
Ġcon cre
Ġ %
ĠC er
Ġpa z
ĠmÃ¡ ximo
Ġv ac
Ġfe der
Ġal can
b ilidad
am il
an ismo
fic ul
or ld
Ġam eric
ĠB la
Ġproduc to
om bi
Ġg lo
Ġarquitec tura
Ġdirig ido
ĠvÃŃ cti
f es
Ġre le
Ġrepres entaciÃ³n
ĠV ol
Ġcl ima
Ġpe le
Ġa ustr
ri da
Ġfund Ã³
ter ios
Ġo posiciÃ³n
v ado
Ġencuen tro
Ġd om
qu er
o t
Ġre produ
Ġs ÃŃn
Ġpu di
Ġp uso
Ġcas Ã³
ci ma
me tro
Ġdi ficul
Ġdemos tr
Ġcon form
Ã¡n ica
n y
ĠM ac
der os
cul tad
tel ig
p onde
Ġf is
Ġcal les
r ente
Ġr eno
Ġde tr
Ġdi ri
d y
ĠT en
Ġj ard
Ġre for
Ġse cciÃ³n
ate m
Ġclas ificaciÃ³n
drÃŃ guez
Ġdes em
Ġmul ti
ĠfÃ¡ cil
ga ciones
it ada
Ġoc cidental
Ġesc al
Ã© di
ĠM ur
Ġmode los
ĠAl gunos
c aron
is to
Ġfa cil
Ġv esti
Ġdistribu ciÃ³n
ĠCan adÃ¡
Ġdis cu
b en
ĠD ÃŃa
Ġins pir
d in
anz as
cion ado
ĠRo bert
Ã¡m ica
ĠÃģ frica
Ġdeb ÃŃa
Ġac ce
Ġes co
Ġrespec tivamente
m u
qu ina
Ġs ang
ap ones
Ġins cri
Ġaz ul
tr es
Ġhab rÃŃa
v era
Ġv alle
americ ana
is h
ĠW a
ord s
Ġinten to
Ġrecon o
Ġf ic
Ġp ul
i taciÃ³n
ĠFern Ã¡ndez
ma to
Ġres istencia
p ers
Ġdi ario
as co
Ġbu en
z i
gun as
ĠL eg
Ġex cep
Ġsu pon
Ġentr Ã³
ĠW e
ĠdifÃŃ cil
car ril
Ġpor tu
ĠRo drÃŃguez
Ġtempera tura
Ġneces ario
Ġcab all
Ġsigu iÃ³
Ġencontr Ã³
ĠM el
minis tr
ĠDie go
un al
Ġ198 5
ĠG rupo
Ġex itos
Ġpes o
w are
Ġofici almente
Ġhum ano
Ġcons tante
Ġj apones
Ġreci bir
ĠY o
Ġso vi
ĠPa ÃŃs
Ġna ve
Ġhech os
Ġprote cciÃ³n
Ġcolabor aciÃ³n
Ġpres iÃ³n
ĠK ar
ĠE di
e cido
k u
ic ultura
ĠD ar
Ġpr om
b us
e p
Ġfor tal
Ġexp lo
r al
Ġv eg
ĠÃ¡ m
Ġfron tera
Ġcontac to
Ġimp uls
ri endo
Ġh ora
Ġdis posi
Ġcapa z
un ta
Ġcom puesto
Ġsitu ada
fa el
Ġma g
Ġ198 6
ques ta
b es
Ġtra tamiento
Ġn ues
Ġm Ãºlti
Ġ198 7
log ÃŃa
ĠConstitu ciÃ³n
Ġ195 0
ĠC iencias
Ġterri torios
Ġb ra
Ġart ÃŃculos
tor a
m y
Ġtempor adas
Ġas ign
p ado
ĠU ru
Ġpare ja
ĠD r
Ġ198 8
Ġinv olu
Ġc ay
Ġtitu lado
ĠC re
Ġexp lic
Ġdirig iÃ³
Ġvis to
iz an
iz Ã³
a to
Ġqu ÃŃm
Ġfig uras
R o
Ġdej ar
l uy
Ġgen eraciÃ³n
Ġprop ios
ĠA p
Ã© ro
Ġcar b
ĠXV I
ĠeconÃ³m ico
le o
Ġfre cuencia
Ġa van
Ġob ispo
Ġterren o
Ġe cu
Ġpr os
Ġestable cer
ĠGe orge
Ġnue ve
Ġa Ã©
ĠG ab
Ġexper im
ĠcrÃŃ ticas
T A
Ġs ome
pera ciÃ³n
Ġunivers idad
Ġvi vo
2 1
Ġreg is
Ġaf irma
Ġad ul
ĠR adio
Ġa por
ĠN eg
Ġorigin almente
Ã³s ito
F A
ĠV ie
Ġcar a
Ġref ug
Ġar ti
tes is
e di
Ġinstitu ciÃ³n
Ġre tra
Ġanun ci
Ġinstitu ciones
ran a
Ġcien cia
Ġconten ido
r ados
ĠV an
p in
ĠAle x
Ġtecn ologÃŃa
19 6
i di
Ġbre ve
it h
ĠIn de
Ġde cor
Ġayud ar
erop uerto
Ġblo que
Ġque da
ĠPla ta
Ġg estiÃ³n
Ġa umento
Ã¡f ico
Ġposterior es
Ġcar ga
Ġprome dio
ri e
Ġvuel ve
ar dia
Ġtraslad Ã³
Ġdifer ente
Ġesc la
ĠL ib
ol l
iv as
ci das
olÃ³g icos
l Ã¡
Ġre ina
ĠJ im
Ġneg a
Ġtor no
Ġmus icales
ĠCh a
m s
Ġap re
Ġcontinu aciÃ³n
Ġpu ente
Ġj a
Ġmar cha
Ġcandida to
Ġ198 2
Ġalcanz ar
c aba
Ġap rendi
ad ura
Ġgra ve
Ġexten siÃ³n
Ġen fo
lo go
Ġide as
m isiÃ³n
Ġb io
Ġfundam ental
Ġmen ores
vi era
l ia
Ġconvir ti
ur Ã³
ĠP on
ĠPop ular
is e
vi dad
tu ales
Ġcomand ante
ol id
Ġdetr Ã¡s
par a
Ġcon taba
Ġlleg ando
Ġ198 3
ug h
Ġus a
ĠDe partamento
p les
Ġd ando
ĠEs tÃ¡
ĠmÃ¡ xima
Ġib a
Ġsol amente
Ġconoci dos
2 3
Ġri es
ĠZ a
Ġsac erdo
L o
ĠE cu
Ġconvertir se
Ġgan ado
k m
Ġmemor ia
ol ina
ĠP Ã©rez
Ġentren ador
Ġvideo j
Ġade cu
z ada
ĠSal vador
Ġcomien zo
Ġcre e
v ol
ĠE se
ĠS ha
Ġ3 5
Ġni Ã±o
l ÃŃn
Ã §
E S
Ġprovin cias
ces a
7 0
A c
Ġestadouniden ses
ĠtÃ©cn icas
Ġsim ilares
d ro
Ġme tal
Ġmodi fic
ton es
r er
Ġcom por
Ġde mas
ue va
ĠmÃ© todo
Ġcen tros
Ġbas ada
Ġdesarroll Ã³
ĠY ou
ĠMay or
que z
Ġg ana
Ġest adio
di ente
an ce
Ġma gn
ĠEspaÃ±ol a
Ġbas ado
Ġm ÃŃn
ĠE E
ĠUru guay
un o
ti dades
Ġv illa
Ġavi Ã³n
Ġf er
Ġdi Ã¡
Ġpon er
Ġescri ta
ĠFeder al
te o
em or
em in
Ġper fec
Ġ198 4
Ġcap ÃŃtu
M an
e k
ĠS ar
Ġconte mporÃ¡n
Ġconvier te
ien da
it z
p es
Ġinici almente
Ġpri ma
di as
Ã³lo go
B A
Ġma te
ta des
" ;
ĠIn d
Ġdes car
en da
Ġescri bir
Ġabs olu
ĠMich ael
Ġcur so
Ġco in
A unque
bi eron
Ġreci be
Ġcarre tera
Ġdesarrol lar
Ġhac ÃŃa
ĠEs tad
ĠJ ef
ĠAr te
iel d
Ġex is
mp o
ĠL ima
id ores
Ġoportun idad
Ġdi pl
it ales
ĠK o
Ġtrans form
Ġbien es
S i
ĠCol egio
Ġd or
ĠÃ³r denes
ĠB ill
Ġsal a
os as
Ġmaes tro
ĠDe bido
tar a
j eron
Ġesc uelas
s idad
ĠdÃ©c adas
Ġconstru yÃ³
ĠAl berto
ĠJun ta
Ġcol ores
w ood
Ġespec tÃ¡
Ġa co
Ġofre ce
Ġinstal aciones
2 4
ĠSe villa
ĠfÃ¡ br
h ab
ig ue
Ġc Ã©l
do l
u x
Ġmus eo
ĠRa fael
Ġsue le
Ġinici al
ĠPortu gal
Ġale manes
ĠsÃŃ mb
Ġfor man
Ġvis ita
dad a
ĠA ra
Ġfundad a
ĠC Ã¡
Ġ197 9
Ġexp lor
el lo
Ġtrabaj adores
ĠS ue
ĠC ul
u re
ctor es
Ġno table
ĠT rans
Ġca u
Ġampl ia
Ġextre mo
Ġdes cendi
Ġportu gu
ĠEl la
tro pol
Ġam is
Ġpre ocu
Ġley es
Ġesta tu
lica ciones
Ġla ter
ib ilidad
Ġlen gu
P o
Ġcontr ario
Ġ197 3
Ġv uelo
Ġ17 9
h is
c y
Ġf ich
Ġb ur
Ġrecon stru
en t
ĠT V
tr ÃŃa
Ġforma to
Ġpuer ta
P ro
ĠIs abel
Ġ197 6
Ġambi ente
Ġdesarrol lado
x to
ĠindÃŃgen as
Ġman da
r ero
Ġalcal de
di dos
ĠT im
ÃŃ ri
2 2
Ã© ticos
ĠAc tualmente
Ġre p
Ġgu ion
j ado
ĠP ac
der ÃŃa
Ġmunicip ios
g Ã¼
Ġsal iÃ³
Ġmovi mientos
ĠJe an
ĠRo ck
Ã ¤
Ġval ores
ĠAm eric
Ġs es
Ġpro gres
Ġcu b
Ġan teriormente
ÃŃ ti
Ġcier to
Ġcom posiciÃ³n
Ġfra cas
ĠDe f
Ġen ten
Ġperiodis ta
ÃŃn sula
ular es
Ġac to
tan o
Ġpre mios
t m
Ġconcier tos
Ġdes e
Ġtotal mente
Ġno ta
tro p
Ġgener ales
cu la
aliz ar
Ġcomer ciales
man n
ĠP alacio
Ġmus ul
as terio
f an
Ġbus ca
di ce
Ġre cl
Ġens ay
Ġh ospital
ĠMartÃŃn ez
Ġcon vers
m ula
ch ada
ĠV I
ĠS tar
ti os
Ġdestac an
Ġ197 8
Ġavi ones
ta Ã±a
Ġde tal
ing s
aliz a
Ġpro ven
Ġveci nos
Ãºs que
Ġrealiz ada
Ġdesta ca
m ens
Ġ5 00
ĠcÃ©l ulas
Ġ194 0
ĠO ro
ĠEdu ardo
Ġesc ala
ĠAs amblea
ĠR ic
Ġpo dÃŃan
cia ciones
Ġlo gra
men t
hu a
Ġmedi das
ĠSe gu
d ri
ci almente
Ġb i
om bre
Ġcomun ic
Ġorganiz aciones
Ġata ques
ĠO fici
Ġp rac
ĠNue vo
Ġex posiciÃ³n
ĠPa z
ÃŃ es
Ġna turales
Ġpro to
Ġfundad or
Ġpopular es
ĠmÃ© dico
u lo
Ġconse cu
Ġ193 0
Ġten iendo
Ġac tiv
Ġescen ario
ĠGu atem
Ġtra tado
Ġfrances es
Ġtrans por
Ġca ÃŃda
L e
cur s
Ġubic ada
Ġqu er
Ġcons ul
Ġru ta
di das
Ġamen a
Ġp alacio
Ġsang re
qu iv
Ġla b
ĠÃģngel es
C om
ie za
Ġban das
Ġcam pos
Ġaspec to
ĠDer echo
Ġdenomin ado
Ġinten ciÃ³n
l ico
Ġsimple mente
Ġdej ando
iv ia
ĠJ uegos
Ġ197 5
S S
ri z
Ġdomin io
ĠT iene
Ġopera ciÃ³n
Ġres ca
Ġindi ca
ĠIs rael
Ġmu cha
Ġexp ans
i ero
Ġfirm Ã³
Ġprodu cido
ĠperiÃ³ dico
ĠPla za
Ġsab e
Ġas censo
c adas
j or
ĠmÃºlti ples
Ġte a
ĠÃģ l
Ġexper imen
g aciÃ³n
ces is
Ġap licaciÃ³n
Ġr uso
Ġran go
m entaciÃ³n
Ġh el
ĠW orld
Ġsuf riÃ³
Ġab und
Ġimp ues
Ġorden Ã³
Ġexpe diciÃ³n
Ġsol a
ĠS ta
Ġcomposi tor
ĠCatal uÃ±a
Ġentr ar
Ġcar reras
Ġter ror
Ġli der
Ġidi oma
bi os
Ġapar ecen
Ġf lor
der as
R A
ĠRich ard
an n
Ġres pe
ÃŃs ticas
Ġcre ada
Ġpr ÃŃncipe
ĠAl lÃŃ
Ġcap illa
Ġl lu
ĠT ar
ci entes
Ġsu je
l Ã³
Ġcomun idades
Ġcor onel
m es
cu es
Ġsal ir
Ġvi vir
iller mo
Ġb Ãºsque
ib e
ĠH or
ĠPe ter
ĠGuatem ala
Ġreci bido
ch ez
Ġcondi ciÃ³n
Ã £
Ġtr ay
bi da
Ġcomple jo
Ġr ÃŃos
b Ã³
ĠCom itÃ©
Ġc Ã¡mara
Ġcomp ren
Ġde ba
Ġpr isiÃ³n
Ġorien tal
i jo
Ġcam biÃ³
bi ta
g ica
Ġre por
Ġdi os
Ġre mo
cab ez
ri el
ĠH un
ĠDan iel
Ġconcier to
3 5
ĠH am
Ġcom puesta
u mo
Ġpa is
Ġcas tel
d Ã³n
Ġa j
Ġhum ana
cra cia
Ġpro puesta
ch er
Ġedu ca
Ġ198 1
ĠNic ol
Ġin telig
ĠAlej andro
Ġg aran
Ġpermi tir
Ġlogr ar
Ġcontr ibu
Ġcer em
ĠÃī l
T V
Ġac onte
ĠO n
Ġper u
Ġale mana
Ġrepu blic
Ġllam Ã³
Ġexpres iÃ³n
es truc
Ġestr enÃ³
Ġrespons able
ĠCu ba
Ġpo eta
ern os
ador as
ĠpÃ©r dida
o este
ĠCris to
is co
Ġfam oso
Ġnav eg
Ġfies ta
ĠÃ¡m bito
ĠA t
er ra
Ġjud ÃŃos
Ġna cimiento
tu m
am an
Ġiden tidad
Ġpro clam
Ġgrab aciÃ³n
P a
ru mp
p r
Ġocas iÃ³n
on al
M e
Ġme dal
om ina
Ġman e
Ġcu esti
cion ar
Ġ197 4
ch ar
ĠD ra
Ġv isiÃ³n
Ġcontr ibuy
ĠRev oluciÃ³n
Ġin cendi
ĠD os
in ados
ĠRec ords
in ales
Ġc rim
Ġal ber
Ġreci Ã©n
Ġh ue
Ġcons um
Ġcomien zos
ĠbritÃ¡n ica
Ġdemas iado
Ġre ca
ĠÃ©s te
Ġconsider ada
ĠGu adal
ĠE con
Ġcer can
ĠM ed
Ġ197 7
ÃŃ tica
Ġl l
Ġgri ego
Ġcomple ta
Ġesc as
Ġa is
h ÃŃa
enÃ³ men
Ġc oci
Ġinterpre tÃ³
aliz Ã³
Ġutiliz ando
ĠTo ur
Ġb e
americ ano
ĠK e
fica ciones
y en
Ġc Ã¡l
Ġver de
Ġr Ã©c
C O
Ġap enas
ĠC e
Ġpas ando
ĠEdu caciÃ³n
am or
ash ington
Ġde pendi
Ġprop ias
it s
Ġad mi
p ul
Ġinter cam
az Ã³n
Ġren un
Ġresul tÃ³
Ġf ol
Ġagr ÃŃcol
tu ri
Ġdi eron
Ġplan e
Ġdeb ajo
ĠÃģl var
ĠW in
en tro
ĠFe deraciÃ³n
Ġvic e
ĠDomin go
ic s
Ġdescu bier
Ġpa pa
Ġ196 8
Ġah ÃŃ
vil le
dal u
g re
Ġinclu ido
Ġcla ve
Ġpro v
Ġdes pe
Ġan g
u ca
c ran
Ġh Ã¡
ĠRe d
on y
Ġre pe
I A
dr Ã¡
Ġpuer tas
ĠSe bas
Ãº r
Ġg er
eci eron
Ġre c
ĠC Ã¡mara
in almente
b ras
19 5
Ġro jo
Ġpro l
ĠB us
ĠnÃºcle o
Ġarquitec to
Ġ194 5
Ġclub es
ĠnÃºm eros
Ġdirec to
Ġal imen
ĠXV II
Ġdesta car
4 5
Ġpre vi
Ġnu cle
ĠAs ia
to dos
Ġref iere
Ã± ana
Ġfuer tes
Ġcirc uns
ĠS ub
te in
Ġciudad anos
om br
v esti
le x
Ġf as
in ada
Ġbus car
M u
C a
Ġcons iste
Ġestr en
Ġcom pu
tropol it
Ġperman eciÃ³
Ġinterpre taciÃ³n
val u
Ġmar co
Ġproces os
Ġaspec tos
Ġa quÃŃ
mit h
ĠÃºlti mas
Ġh al
Ġdesp laz
Ġus ando
ĠL ea
Ġen cabez
re o
ĠA ragÃ³n
il le
Ġen cima
ĠS tu
ĠProvin cia
Ġf enÃ³men
Ġla go
k in
Ġhu bi
Ġ193 6
ĠS ierra
Ġcri tic
ĠbÃºsque da
Ġtr ibu
Ġdes tino
Ġautor idad
C o
Ġasesina to
ĠE mp
cuen cias
ac as
Ġreun iÃ³n
ĠFran k
Ġcompe tencia
Ġesc ol
Ġplan te
ing Ã¼
Ġepiso dios
Ġpilo to
dem os
Ġimp os
Ġ197 2
Ġus ado
Ġfamil iar
Ġcar gos
if e
Ġtray ec
ĠGu illermo
2 8
ĠTor re
2 6
ĠS Ã¡n
Ġr os
ti m
Ġocu par
Ġen viÃ³
2 7
Ġperteneci ente
Ġre da
ĠChar les
cu s
ĠH an
Ġpresiden cia
Ġc m
Ġestre llas
Ġespeci ales
S us
ĠMar tin
ĠÃºn icamente
ĠTra b
Ġesti m
Ġpublic ada
ĠtÃ©cn ico
y endo
Ġestre lla
ĠfÃŃs ica
Ġf irma
Ġes as
ĠH ern
Ġindustr ial
Ġrecu er
Ġtr o
ĠMe dia
Ġconoci Ã³
Ġprofun di
Ġestudi ar
Ġalma cen
ca pa
Ġinter ac
Ġpob laciones
ĠSo vi
Ġa se
Ã¡ ticas
ĠA ven
Ġemb aj
Ġdu que
f os
ĠAndr Ã©s
ĠLo u
or io
Ġd ue
Ġau t
Ġd ura
mÃ¡ ticas
Ġclar o
Ġv on
om Ã©
ĠT orn
de a
Ġpr ision
Ġa la
Ġlengu aje
ĠA ir
em as
Ġa ves
Ġ4 5
Ġhom en
Ġle tras
Ġdis cos
Ġin ven
ĠA f
ĠH el
Ġ196 9
les ias
ĠP en
Ġveh ÃŃculos
ĠvÃŃ deo
ĠVic ente
Ġencontr ado
ĠC D
mÃ¡ tico
Ã ł
ĠFa cultad
Ġan cho
vi e
Ġmexic ano
" ".
ar as
z Ã³n
Ġe mo
Ġaquel la
Ġcul turales
w er
2 9
Ġconver tido
Ġutiliz an
u p
ĠAustr ia
Ġman tiene
Ġinte lec
A R
Ġin con
Ġcorri ente
el as
an ia
el os
ĠSÃ¡n chez
Ġconcl uy
ĠRo y
ĠBan co
Ġcop ias
Ġinvas iÃ³n
ĠJ usticia
Ġfalle ciÃ³
Ġpresen tan
ĠA ug
Ġh em
Ġexp uls
Ġpropie dades
Ġac cidente
Ġmater ia
Ġatr ibu
t te
ĠE ra
am b
ĠJ ulio
Ġsecre tario
Ġ19 20
ĠAn ti
ĠEcu ador
Ġno vel
Ã£ o
ĠW ashington
g ados
Ġdel eg
ĠSebas ti
Ã¡n tico
Ġc Ã³m
Ġcier ta
Ġbomb ar
ik i
Ġel ig
Ġcom pa
Ġllev ado
i des
N e
Ġrelig iÃ³n
ĠpÃºbl icos
ĠT al
b ado
Ġviol encia
ĠRam Ã³n
Ġabier to
ec ciÃ³n
Ġdocu mentos
Ġ196 7
ĠPac ÃŃfico
Ġespec ÃŃf
Ġal lÃ¡
ti ficaciÃ³n
Ġescu do
ĠcatÃ³ lica
rim iento
ĠTh omas
Ġpen ÃŃnsula
pi ri
Ġpo deres
Ġcomun es
Ġpin tor
Ġlen guas
ier ÃŃa
Ġfund ado
ĠFun daciÃ³n
Ġaso ciaciÃ³n
Ġcuar ta
ĠTri b
den cias
Ġcor to
Ġtradi cionales
Ġan ual
ĠBer lÃŃn
Ġexpans iÃ³n
m al
Ġinvi erno
ĠO tros
Ġtermin ar
Ġal tas
Ġp ista
olÃ³g icas
Ġcic lo
Ġprac tic
ÃŃs ticos
9 0
Ġre des
ĠHis toria
pi raciÃ³n
Ġhum an
Ġinm ig
ĠP in
Ġdef en
i ciones
ĠlÃŃmi te
Ġher e
Ġpas aj
Ġso br
Ġbaj as
ĠMus ic
ĠcompaÃ± eros
Ġesc enas
ĠÂ« "
Ġcivil es
gra ma
j Ã³
pres iÃ³n
an es
vi do
Ġt aller
Ġen orme
Ġps ic
Ġcon ex
Ġdescri be
el la
Ġelem ento
Ġb ras
ĠP ri
ĠGran de
d omin
Ġc Ã¡n
Ġun iÃ³n
Ġcor azÃ³n
Ġimp le
Ġas al
Ġtele vis
di c
Ġre forma
ĠraÃŃ z
Ġcambi ar
Ġamb ien
Ġdescon oci
eg as
Ġven tas
Ġ197 1
Ġsel lo
Ġries go
ĠSu pre
ĠD istr
ĠcÃ³ digo
s t
Ġentre vista
ĠCor te
Ġna tal
Ġreconoci do
ĠE dad
Ġdebu tÃ³
ĠC O
Ġb ril
Ġderi v
ĠbritÃ¡n icos
Ġmic ro
ĠS co
Ġcol ombi
ĠT ro
Ġf lota
ha t
Ġbar co
ĠDe mo
Ġdifer encias
Ġcor ona
Ġde tec
Ġ x
el es
Ġen torno
ĠE gip
ĠV ar
Ġhay a
Ġpres entaciÃ³n
ĠMunicip al
ĠestÃ¡n dar
Ġtrabaj ando
ci ar
y eron
ĠG il
ĠEstad io
f as
Ġsen ti
Ã³m ez
Ġre inado
c Ã³n
Ġp is
Ġ3 00
Ġper der
Ġdo ce
Ġser ies
ĠG ol
Ġs Ã©
Ġsuel en
Ġex tin
uel ta
Ã¡n ico
g ano
Ġcomb usti
Ġcon quis
ĠG ro
Ġcal ific
Ġad ministr
Ġe quiv
Ġprotagon ista
ĠAs imismo
Ġde p
ĠS im
ĠP i
Ġguitar ra
Ġde ja
Ġconvirti Ã©ndose
Ġplan es
Ġestudi Ã³
il los
is tÃ¡n
cl es
. )
u a
Ġdipl om
ĠB r
ĠCa tÃ³
Ġag reg
ĠS ab
Ġocup Ã³
a ve
Ġfu tbol
Ġ15 0
Ġcon curso
ĠA ma
Ã± ez
Ġre clam
Ġcor on
Ġusu arios
Ġcons erva
Ġsal v
Ġr ue
Ġmuer to
as s
ĠNa ciones
Ġmas cul
ra z
Ġal ter
Ġdipu tado
Ġp iel
Ġconte xto
Ġac tos
Ġobje tivos
ram ien
Ġsos ten
un do
Ġma Ã±ana
ĠCor ea
Ġsufici ente
Ġme ta
tien de
ĠÃ¡rbol es
ĠL an
Ġposi ciones
Ġqui Ã©n
ron ce
ĠEs co
Ġa pertura
Ġregres ar
Ġno ble
Ġhomen aje
Ġpodr ÃŃan
Ġ17 8
7 5
Ġmez cla
ĠSuper ior
es pe
Ġfon dos
Ġur ban
Ġev oluciÃ³n
tis tas
Ġentre ga
qui era
ĠSovi Ã©tica
Ġre ales
Ġvol umen
Ġmas a
Ġcon quista
Ġagr icultura
3 6
ol ver
Ġpo tencia
Ġch o
ĠDire ctor
ĠQu in
Ġeurope os
ĠC ity
ab ora
ĠR ica
Ġesta ciones
u th
Ġri t
n et
ĠPar que
ĠLe on
ĠEgip to
Ã³r mula
Ġest ad
Ġfa chada
paÃ± ÃŃa
Ġ196 4
ĠrÃ©c ord
Ġprofes ionales
Ġd uraciÃ³n
Ġl in
b iendo
ÃŃri tu
inas tÃŃa
Ġma tar
Ġtex tos
ik e
ĠMun do
Ġmuer tos
ĠhistÃ³r ica
ĠcrÃŃ ticos
Ġho jas
Ġfil osofÃŃa
ĠA ut
itar ios
Ġsex ual
Ġo cul
ti po
Ġsector es
ĠÃ¡ra be
Ġespa cios
Ġopin iÃ³n
fic amente
Ã¡ndo le
ien das
Ġdi a
Ġmejor ar
Ġ193 9
gr ÃŃa
Ġdenomin ada
ĠDÃŃa z
Ġp ies
qu ÃŃn
Ġcons umo
Ġsab er
Ġlic encia
u de
ĠBol ivia
Ġex pon
Ġmoder na
Ġinf luy
ĠG Ã³mez
Ġur b
ita ciones
Ġf ir
ti das
Ġpartici pa
D o
ĠC ine
Ġpo bre
Ġneces ita
Ġar co
w ell
ĠMin istro
Ġh os
Ġestra teg
Ġex ac
Ġqu erÃŃa
Ġmis mas
Ġar res
3 3
Ġher ramien
Ġatr Ã¡s
ĠprÃ¡c ticamente
Ġmin is
Ġf el
ĠA h
Ġpromo ciÃ³n
ar la
Ġraz ones
les c
Ġv ino
Ġenvi ado
lan da
N E
Ġ196 6
ĠIn vesti
Ġtr ono
Ġ #
4 8
aj os
Ġfeder al
Ġinmedia tamente
Ġbos que
ĠTorn eo
ĠDepor tivo
Ġas cendi
I C
Ġdispon ible
ĠB on
Ġreac ciÃ³n
tu vieron
Ġc Ã©
Ġo fer
Ġinici os
om os
zo b
Ġleg isla
, "
ton e
ĠR en
Ġplan o
ĠT ex
Ġobs erva
cion ados
ĠC ada
im os
ĠE je
im as
Ġ196 5
Ġso ber
ĠpÃºbl icas
Ġconsidera ble
Ġo jos
Ġcompeti ciÃ³n
Ġvo cal
ĠGe org
Ġf rag
Ġpo cas
Ġferro carril
am Ã¡
Ġju icio
ft ware
ec o
ĠPol onia
Ġpues tos
ĠlÃŃ deres
quil ib
Ġllam ados
ĠU S
Ġj orn
in Ã³
Ġrelacion ados
Ġn eo
ue los
ta g
Ġllev aron
Ġform ada
tad ura
an der
Ġjun tos
Ġrev olucion
Ġ194 4
Ġhistor ias
te les
Ġter mina
Ġbas es
Ġdecre to
un da
Ġac tores
Ġresiden cia
ĠDi pu
Ġcine mato
es s
Ġdirec ta
u ta
Ġplan eta
Ġvi viÃ³
Ġhog ar
Ġpo esÃŃa
Ġcons ta
an ti
Ġau ton
ra y
t ch
Ġte j
ti ciÃ³n
g adas
ar quÃŃa
Ġdispu tÃ³
Ġser ÃŃan
ĠAl l
an t
Ġrev oluciÃ³n
Ġcon tÃ³
Ġincluy Ã³
Ġsem if
Ġenem igo
ru pciÃ³n
Ġo pon
ĠcaracterÃŃs tica
Ġa ce
Ġinten tÃ³
Ġm ig
Ġrom ano
i ares
Ġpresen tar
ĠO lÃŃ
ĠAd ministra
Ġcumpl ir
ier en
Ġprop Ã³sito
Ġesca par
ĠL ar
ĠÃ ĵ
ĠJos e
Q u
Ġhab lar
ganiz aciÃ³n
Ġp ier
ĠT re
ĠmÃ© todos
Ġestruc turas
pon Ã©s
Ġinte gra
ĠH on
ĠVic toria
Ġsir viÃ³
Ġcab ec
ĠN i
Ġca tedral
ĠF ar
Ġmo tores
ĠOlÃŃ mp
ar ÃŃan
gra fo
or as
Ġmon asterio
Ġ quiere
Ġexp los
ĠmÃºs icos
Ġdenomin aciÃ³n
Ġantigu as
Ġaudi encia
bur g
ĠH ospital
ĠAy untamiento
tu mb
Ġbar cos
ĠDo ctor
m ol
Ġcor ta
Ġconstru ida
w in
Ġcon tar
Ġen tidad
Ġorigin ales
J o
ĠV all
Ġs it
Ġcul tiv
ĠBre taÃ±a
Ġinvesti gaciones
Ġem ig
M A
us os
Ġveg e
S O
ĠclÃ¡s ico
Ġex por
ĠRic ardo
Ġpasaj eros
Ġrela tivamente
ĠlÃŃmi tes
Ġar reg
Ġimp acto
Ġpresen tado
ĠÃ©s ta
Ġpres tig
x a
ĠrÃ¡p ido
Ġdedi cÃ³
Ġpopular idad
4 7
Ġcuer pos
Ġmues tran
Ġor g
c ador
Ġmo tivos
Ã³n icas
ech os
ĠvÃŃcti mas
ĠS tan
Ġado lesc
Ã³ cra
Ġex cel
on s
ĠPar lamento
ĠJo a
Ġur bano
Ġabog ado
ĠV a
Ġre ti
Ġ194 1
ĠC ultura
Ġautom Ã³vil
Ġdedi cado
ĠGran ada
Ġdesarrol la
ĠCar ta
l icos
bo ard
" ",
ĠCons tan
j ero
Ã© is
ien se
ĠcompaÃ± ero
b ro
Ġb ru
Ġ196 2
pres idente
S o
Ġpi diÃ³
Ġmonta Ã±a
Ġreg ional
no w
Ġl istas
iste ma
Ġproteg er
Ġocu pa
Ġen la
Ġinstr umentos
ĠcrÃŃ tico
ĠC lar
Ġhi dro
Ġparticular mente
3 7
3 8
Ġta bla
ĠNicol Ã¡s
ĠcompaÃ± ÃŃas
Ġnorm almente
ang el
Ġprovo cÃ³
Ġinter venciÃ³n
Ġafirm Ã³
ĠBla ck
ĠC ro
Ġutiliz Ã³
Ġ196 3
Ġtr an
ru p
ĠT emp
ÃŃgen es
Ġcorres ponde
Ġcon dado
ĠCan al
Ġf lores
Ġabandon ar
L uego
Ġemp a
Ġden omina
Ġreligios a
Ġqued ando
Ġex cepciÃ³n
ĠEurope a
us ieron
Ġm ito
Ġin forme
Ġab riÃ³
Ġcompor tamiento
Ġdeman da
ĠS mith
ĠUn o
Ġsecund aria
es es
ĠM ic
Ġreg istro
Ġsub s
Ġban dera
f ield
Ġperten ece
ĠV el
ĠRo b
f ru
di cial
Ġg a
am ar
Ġreemp la
i um
Ġencontr aban
ĠCas tillo
ÃŃ na
Ġbras ile
F ran
Ġdis c
Ġpan talla
Ġocu paciÃ³n
Ġse cues
Ġfac tores
ĠÃ¡lbum es
ĠfÃ¡br ica
ici os
ĠUn idas
Ġinclu ÃŃa
Ġpie za
Ġnar ra
Ġdra ma
Ġre almente
Ġcontinu ar
Ġhistori ador
Ġgan ador
Ġnombr Ã³
s al
e la
Ġpue da
u an
Ġal f
Ġquin to
ros o
Ġactu ales
Ġba u
Ġretir Ã³
ĠPara guay
Ġingres os
Ġn ad
Ġh alla
ĠIr landa
Ġtu mb
ĠCom paÃ±ÃŃa
Ġfil m
Ġ3 6
Ġten iente
Ġau tÃ³n
Ġplata forma
E R
c ans
p la
Ġ Î
Ġmom entos
h en
ĠU l
Ġcoin ci
ĠFuer za
Ġoc ta
ara go
posi ciones
Ġenem igos
Ġjur is
3 9
t Ã©
Ġinteres es
Ġabandon Ã³
l ie
Ġcu yos
Ġelec toral
graf ÃŃas
ĠS cho
terrÃ¡n eo
Ġejer ci
Ġsor p
ĠSer vi
Ãº an
id or
pi ra
ĠG uer
f Ã©
ec k
Ġimp lic
ĠLor en
Ġmanda to
Ġvein te
ĠB ay
fer encias
Ġform ando
Ġas cen
Ġres erv
ĠG en
ĠMar io
Ġampl io
al iciÃ³n
Ġcubier ta
Ġse g
ĠB ru
Ġcamp es
Ġrom ana
Ġpres entes
Ġb arro
Ġcerc ano
Ġsegu ido
Ġf i
por t
Ġescu ad
Ġal tos
Ã¡ndo lo
des a
Ġin fec
Ġcor por
Ġalim entos
Ġcon m
ĠA Ã©
3 4
gu lo
Ġse an
t ti
Ġtr ip
Ġle tra
ĠEs p
Ġlleg ado
Ġequiv al
Ġde biÃ³
Ġes que
Ġsa tis
n ia
om er
Ġreco g
Ġfic ciÃ³n
Ġdi e
Ġan al
ĠC uer
ĠMil itar
ĠPo co
ĠcientÃŃf ico
Ġbos ques
Ġdismin u
Ġ194 8
tu ario
t ente
s k
Ġt ard
Ġf estival
ÃŃ tico
Ġ195 8
Ġf ij
Ġar gentina
ĠGre cia
Ġal titud
id al
ĠF erro
ĠG reg
Ġrealiz aron
P os
Ġnor oeste
r ue
âĢĶ ,
ĠcientÃŃf icos
Ġdel an
Ġcu id
t adora
ĠLa tino
Ġcons a
h ol
Ġe valu
Ġ194 2
ue ga
Ġac tivo
Ġy o
Ġ194 3
ĠNa var
Ġestable ce
Ġre ta
ĠP ra
osp ech
Ġrepresen tante
Ġpre cio
ĠIn tern
ĠCas tro
Ġ3 2
ĠenseÃ± anza
c ales
Ġgen era
Ġestable cido
Ġdici endo
Ġca za
Ġposib les
Ġpin turas
p ano
Ġar ma
ĠI b
ĠSeÃ± ora
ĠFeder ico
ĠD em
c era
Ac tualmente
Ġvin cul
I D
Ġmil es
r ista
Ġdis cip
Ġredu cir
Ġcon tro
car se
h ar
Ġro l
Ġv ÃŃas
M ientras
Ġfies tas
Ġcul tivo
Ġpres u
ĠPar k
ĠW est
Ġrecor rido
Ġla tÃŃn
ĠX III
iv er
Ġh uel
Ġcol onia
ĠC Ã©s
Ġesti ma
Ġtra tar
Ġub icaciÃ³n
Ġinf ra
di entes
ĠCh ica
ĠF C
5 00
ĠTrib unal
mi ta
Ġmar ido
ril lo
Ġcier tos
di miento
ĠB l
Ġmar cÃ³
emen terio
Ġescri tos
Ġtre inta
Ġ =
Ġinten ta
i era
ĠM Ã¡
Ġtrans misiÃ³n
ĠV o
ĠâĢ ĺ
s in
c Ãº
ĠR ay
Ġesfuer zos
i vi
Ġactu aciones
ĠdesempeÃ± Ã³
Ġm am
Ġnego cios
Ġo x
Ġdocu mento
ĠE le
Ġna cido
Ġi leg
Ġmonta Ã±as
ĠDes arrol
ĠA D
ĠA ten
u c
Ġre in
Ġmar ch
th a
k ing
Ġto car
ole do
s ki
Ġvic torias
Ġhabitu al
Ġm ix
cien da
Ġsigu iendo
Ġevi dencia
Ġpro ve
Ġde c
Ã©r ico
Ġar till
pu laciÃ³n
ĠSebasti Ã¡n
Ġrepresen tantes
Ġfuncion amiento
Ġdedi cada
Ġedi tor
ien a
Ġadap taciÃ³n
ĠAg us
Ġd inastÃŃa
Ġcompr om
ĠDistr ito
V D
Ġesta tal
Ġa eropuerto
Ġdocumen tal
ur us
ĠRos ario
Ġ196 1
Ġmon e
Ã³g ica
ĠRo berto
ĠCam p
Ġrev istas
Ġglo bal
lan a
as t
Ġcabec era
Ġutiliz ada
Ġata car
Ġmoder no
Ä ģ
Ġcuad ro
Ġreci entemente
Ġg ir
Ġresul ta
ci dades
ĠSa int
Ġs ospech
B o
âĢ ľ
ez as
arago za
Ġinicia tiva
u ma
Ġter res
M o
4 4
ĠLea gue
u almente
ĠG ir
Ġm ur
Ġmos trÃ³
Ġen v
Ġdes en
l ora
Ġedi torial
" :
Ġf res
Ġcristi anos
Ġa man
Ġnoti cias
Ġcul to
tr ol
ĠLe e
3 2
t Ã©g
Ġf ras
ĠS ala
Ġperman ente
Ġsolu ciÃ³n
Ġal ianza
Ġtr amo
Ġab or
tu re
Ġpar lamen
Ġre quer
to p
americ anos
Ġleg al
ĠS or
Ġgrab ado
ĠR ub
g ol
qu inas
ĠmÃ¡ r
Ġsuperior es
Ġre mon
i Ã©ndose
j i
ĠHen ry
Ġpelig ro
Ġaf i
ĠIntern et
Ġcier tas
te d
ĠAl to
Ġsi tios
ĠArm ada
ĠOri ente
Ġres i
Ġcateg orÃŃas
Ġdi Ã³
pe ones
Ä ĩ
c ero
or den
Ġtriun fo
Ġcan ales
ig as
Ġnorm al
ĠI l
e ma
j an
gen o
Ã© ano
ĠsÃŃmb olo
ĠC le
Ġinform Ã³
Ġpa gar
ĠSue cia
Ġfamil iares
Ã¡ rez
P A
ĠCol le
Ġextranj ero
Ġestr eno
Ġdesign ado
az z
Ġ195 6
un ciÃ³n
Ġsim ul
Ġveh ÃŃculo
Ġ Ãº
Ġparro quia
ces iÃ³n
U U
di ll
3 1
) :
ĠMar y
Ġital iana
ĠAtl Ã©tico
men tar
Ġdig ital
ĠMar ina
Ġdef endi
Ġj usto
cular es
Ġp iano
ĠInd ustr
ĠAl fre
Ġh Ã©ro
Ġrecuper ar
Ġa bre
Ġparticip antes
r eros
en co
Ġindividu os
Ġja ponÃ©s
Ġterren os
ĠdiseÃ± ado
Ġdestac ado
ez ol
ip s
4 6
Ġases inado
er al
ĠPh il
Ġtr Ã¡fico
ÃŃ p
Ġarri ba
ĠmÃºs ico
ĠE v
Ġaumen tar
Ġ195 9
Ġespec tadores
ĠCar men
ĠV II
Ġ195 5
Ġejecu ciÃ³n
Ġdistin gu
ta in
Ġextranj eros
y l
Ġper dido
Ġpriv ada
Ġprovin cial
ĠpÃ¡g ina
Ġmedal la
ici s
Ġgan ando
Ġmoder n
Ġex ca
ĠespectÃ¡ culo
ĠC ur
Ġla tino
ug a
ĠJa vier
Ġfam a
H ay
Ġre vela
ĠSan tos
Ġenferme dades
it ante
Ġm ir
Ġblan ca
ĠD in
Ġpres i
Ġ195 7
cri to
Ġpa cientes
Ġexp lica
Ġdic tadura
ĠGo bern
Ġin no
Ġpre cip
Ġcompr ome
Ġcompon entes
ÃŃ b
b s
r enta
am i
e amente
Ġasum iÃ³
Ġh uy
Ġ194 6
ĠT ec
4 9
ĠPro fes
Ġacab Ã³
Ġampl iamente
Ġ193 7
Ġcomp ra
pol is
a co
Ġhi erro
u z
Ġefec tu
Ġor questa
Ġingres Ã³
Ġa un
Ġco op
Ġemp ieza
Ġli mp
v iendo
Ġconse jo
ĠD or
ĠD ich
Ġs ing
Ġes piri
Ġri v
Ġjur ÃŃ
Ġlocal idades
Ġaustr al
un es
Ġingen iero
7 8
ĠT oledo
vi miento
Ġfac tor
Ġcom arca
Ġpoten cial
Ġalum nos
Ġe quilib
ĠM y
ar te
g or
A S
lan os
Ġl ide
ĠK en
Ġabs or
bi ernos
Ġso por
Ãºs ica
estruc tura
C an
ĠK ing
Ġsecre to
Ã³ p
Ġab ajo
Ġne u
Ġavan ce
ĠF rente
ĠS em
Ġno ven
grÃ¡f icas
Ġun e
Ġven ezol
Ġdefin iciÃ³n
Ġf ar
Ġart ÃŃstico
o c
Ġmexic ana
f era
s as
Ġcar tas
qu in
Ġv iene
co p
Ġaus encia
ine te
ĠÃ©x itos
qu Ã©s
Ġamena za
Ġn aciÃ³n
ĠEs pe
ĠV era
Ġc Ã¡r
Ġcome dia
Ġcol egio
Ġconfirm Ã³
ĠTo dos
Ġpubl icaciones
hibi ciÃ³n
Ġo tom
ri to
Ġcontin Ãºa
Ġa ca
ĠComun idad
Ġj usticia
am arca
Ġesfuer zo
ien en
Ġin forma
Ġun if
Ġc enso
Ġconven to
ĠDef ensa
ĠT es
Ġas untos
Ġpla zo
Ġa ter
S a
Ġcu estiÃ³n
Ġdis fru
H o
5 5
Ġ194 9
Ġcuen ca
Ġdefen der
Ġpro pa
le t
B ar
ĠcapÃŃtu lo
ĠR og
Ġejemp los
Ġg ar
Ġd ro
Ġinclu ir
lan dia
ĠCÃ©s ar
se y
ĠAn dalu
O S
Ġg ig
Ġamen az
Ġ4 00
Ġestu vieron
ĠN uestra
Ġmon o
Ġdescu bre
Ġri val
Ġdecl ara
g ro
Ġ Ð
Ġrendi miento
Ġconoci das
7 6
ĠR osa
ĠM ol
Ġencontr aron
Ġviv iendas
Ġpre domin
ĠMar k
Ġpos esiÃ³n
Ġconcen traciÃ³n
Ġcol a
Ġrealiz an
Ġtotal idad
Ġas isten
Ġcelebra ciÃ³n
tr ans
Ġnom bra
in cesa
Ã¡s tico
r um
Ġ194 7
ac er
Ġpre cios
aliz ados
Ġprima vera
Ġescri tura
Ġmor ir
Ġcolum nas
d s
Ġb ronce
Ġderro tado
Ġpo demos
Ġ193 8
Ġrom anos
9 9
ce d
w w
ĠMa es
ĠCam po
on ces
Ã³n icos
Ġverda dero
ell i
Ġcay Ã³
Ġestable cimiento
Ġsegun dos
ĠH it
Ġag ente
ĠIg na
Ġpens amiento
Ġpun ta
ĠF on
is cal
an i
Ġviv e
Ġtrayec toria
Ġocas ion
Ġas i
ĠF al
Ġrepresen tan
ĠPan amÃ¡
Ġdes cen
Ġex am
Ġenfren tÃ³
ĠIn s
ĠSu iza
Ġd ul
Ġdes cans
Ġjard ÃŃn
ĠIn gen
Ġda Ã±os
com un
ĠEstu dios
Ġfinaliz ar
Ġreligios as
c ara
ĠMos cÃº
ĠChica go
ĠZ aragoza
r icaciÃ³n
Ġc Ãº
Ġespec ÃŃ
ĠBo b
4 2
tin as
f in
Ġprofundi dad
Ġderro tÃ³
Ġes pera
Ġsol ar
Ġen cu
Ġqued aron
Ġs how
t ÃŃcu
uer o
Ġgra ba
Ġcerc ana
Ġley enda
Ġpele a
Ġencar gado
Ġemple ados
Ġmon umento
Ġlogr aron
Ġser vir
Ġ3 8
ri dos
Ġel enco
Ġre per
ĠFran co
Ġdo lor
ĠhistÃ³r icos
Ġparticipar on
i y
e val
Ġnego cio
t to
ub e
ĠP C
Ġsignific ado
ĠGab riel
Ġdiscip l
ĠNavar ra
Ġconstitu ye
ĠColle ge
Ġcon tras
Ġal iados
c tur
Ġcompar aciÃ³n
en io
Ġc ÃŃr
Ġbas a
Ġinclu ida
ome tra
Ġcr Ã©di
Ġ193 1
Ġretir ada
Ġfech as
ĠPla y
Ġextre m
den as
di cciÃ³n
Ġem is
ĠCul tural
ĠD ol
Ġ195 2
Ġatra ves
ĠBa talla
Ġil ustr
Ġresta ur
ĠÃ³ pera
ĠFlor ida
Ġac re
Ġcorrespon diente
Ġpre ce
Ġreci ente
Ġdis curso
Ġ193 3
Ġg us
Ġpermit en
Ġdescub riÃ³
Ġpro vis
ĠAven ida
Ġc il
Ġanim al
Ġap licaciones
Ġart ÃŃstica
Ġparti d
Ġcelebr Ã³
Ġimper ial
Ġden sidad
el le
ci ano
Ġocur riÃ³
Ġg ub
Ã¡s tica
ĠOri ental
Ġa ma
g Ã©n
u k
go tÃ¡
ĠCab all
i mp
Ġdetermin ar
ur t
en g
Ġ195 3
Ġcom ida
ĠelÃ©ctr ica
Ġh ues
ĠJu ven
Ġle jos
Ġso ftware
Ġposible mente
Ġre cep
ĠPaÃŃs es
Ġen tra
Ġimper io
Ġdi mens
ĠAn tes
ko v
Ġrealiz aciÃ³n
for man
Ġtar ea
Ġal ar
Ġla dos
Ġprodu cida
Ġtitu lada
ĠfenÃ³men o
Ġedi ciones
Ġ195 4
m is
s ter
ĠeconÃ³m icos
Ġlog rando
Ġmencion a
Ġof ens
4 1
z e
tro cin
Ġdeclar ado
pan y
v ada
u f
ĠG as
Ġconside ran
Ã© ticas
M S
Ġinf ancia
en cial
ĠCar l
Ġver dad
ĠV ÃŃ
Ġpa go
tÃ¡n dose
Ġchil eno
i ada
Ġdesem bo
Ġllev an
6 5
Ġprograma ciÃ³n
a k
Ġcom isiÃ³n
Ġviaj Ã³
di z
Ġcons igue
Ġcar ne
Ġcul min
a h
ĠDesarrol lo
Ġpu dieron
Ġda Ã±
Ġdefini tivamente
res te
zob ispo
Ġb iblioteca
ĠX II
ec ÃŃan
Ġac ord
ĠLoren zo
I S
Ġutiliz ados
ĠcÃ¡n cer
L A
de ll
ĠclÃ¡s ica
ĠRey es
Ġinvolu cr
Ġhab ilidades
ĠScho ol
Ġde porte
Ġgr Ã¡f
cis mo
Ġes con
ĠCas tel
Ġverda dera
le za
ĠgÃ©n eros
Ġhacer se
Ġan ex
Ġm Ã³vil
ĠeconÃ³m icas
P er
ĠR ico
Ġhum or
Ġrecl u
Ġejemp lares
Ġeurope o
Ġf iel
ores te
Ġs Ã³l
vi deo
G u
Ġestra tÃ©g
ĠB ajos
Ġtrabaj a
t he
j ada
Ġgo biernos
Ġgrab Ã³
Ġaf ric
ÃŃn ea
ĠBro wn
Ġig lesias
Ġto p
ĠS tre
Ġmar gen
Ġcerem onia
ĠÃ³r gano
ĠTra tado
ĠCom er
L u
Ġpers pec
Ġsu ma
Ġres erva
Ġneg ra
Ġhubi era
dol fo
Ġprov iene
Ġop ciÃ³n
Ġf usiÃ³n
a ta
Ġdif usiÃ³n
Ġapar ecer
Ġminu to
ĠAn g
Ġsigu en
J os
ĠfÃŃs ico
d ras
Ġdis posiciÃ³n
Ġviaj es
ren der
Ġdispon ibles
mp le
Ġdestru cciÃ³n
Ġneces idades
lan tes
tiv e
Ġdifer enci
Ġcontin ente
Ġ19 18
Ġnovel as
4 3
ĠJose ph
D on
in ten
Ġingles a
te cas
Ġp ic
Ð °
Ġau x
tam ento
ĠCh i
Ġactu Ã³
par te
Ġri que
Ġus an
Ġadqui riÃ³
ern am
Ġhacer lo
c tos
Ġac ces
Ġdescri biÃ³
vi leg
Ġconserv aciÃ³n
Ġprop uso
ig na
ĠMu chos
Ġd uda
ĠSen ado
on so
Ġentren amiento
Ġsal e
Ġderro tar
Ġabier ta
er te
Ġac tiva
Ġfab ricaciÃ³n
Ġindividu al
Ġdeb ÃŃan
ĠSeÃ± or
Ġamis tad
us s
c ro
Ġunivers idades
tion s
Ġaprendi z
Ġre quiere
Ġreci n
Ġ16 0
Ġten dencia
et s
Ġeta pas
ĠC el
de la
ĠBel las
Ġcolum na
Ġm ala
Ġjue ga
er vi
qu illa
Ġlab ora
Ġinteg rantes
Ġofer ta
ĠMe xic
Ġba terÃŃa
ĠsÃ© pti
6 8
Ġneg Ã³
Ġtel Ã©
Ġparro qui
ĠP ie
es per
Ġdes eo
ĠT res
Ġa eron
pol e
di l
Ġgal ard
Ġp iso
Ġde partam
Ġdeci dieron
en z
Ġllam adas
Ġdeclar aciÃ³n
ĠAn gel
ĠAgus tÃŃn
de os
Ġmedi cina
ĠH al
Ġob tiene
Ġa gentes
ĠM endo
Ġ193 4
on os
Ġliber al
se cu
Ġ ul
Ġsu ici
C ol
ĠH asta
Ġun irse
M Ã¡s
is tiÃ³
Ġarti fici
Ġco che
Ġescri tores
o v
ian as
ĠP ala
Ġbor de
ĠOc cidental
ĠA gu
in er
Ġvo to
ĠJoa quÃŃn
ĠL is
t Ã©r
ĠDemo cr
Ġt asa
onces to
Ġblan cos
9 5
Ġcer e
ĠTex as
Ġmens aje
Ġarquitec tÃ³n
Ġp one
ĠcientÃŃf ica
Ġcic l
ti zar
Ġs Ã¡
De bido
Ġinter ven
Ġmunicip ales
ĠMa x
ur g
Ġel og
Ġdis pers
Ġalcan ce
tal las
on ado
ĠM is
Ġusu ario
Ġocur re
ĠL eo
Ġexclus ivamente
Ġdif un
ĠprÃ¡c ticas
Ġr ural
ĠReg iÃ³n
ĠJ ane
ĠAl cal
Ġatr ibuy
Ġinfan til
Ġdipu tados
Ġfinaliz Ã³
Ġtesti mon
ĠCatÃ³ lica
Ġ3 3
Ġbu ques
Ġconsider Ã³
Ġemple o
Ġaprob aciÃ³n
ĠZ el
ĠAl gunas
Ġreligios os
Ġfortal eza
Ġadul tos
Ġd urÃ³
Ġfam osa
ĠL una
l ing
Ġobl iga
Ġem er
ĠIgna cio
Ġcomb inaciÃ³n
g ando
Ġprision eros
ĠD al
Ġsegu idores
Ġemb ar
Ġb izan
Ġre bo
Ġcolon ial
ite d
b ran
gu ien
Ġpes e
Ġco aliciÃ³n
Ġil us
Ġsuces or
ĠGu ardia
ĠLa tina
Ġesp ÃŃritu
u co
ĠR ena
E C
ĠG usta
Ġresta uraciÃ³n
Ġdificul tades
ĠS he
ĠT an
Ġe fica
er amente
Ġperson alidad
ri les
Ġlle gan
Ġrepresen tar
Ġreligios o
olog ÃŃas
ĠCon cepciÃ³n
Ġhi pÃ³
Ġferro vi
Ġexp an
i us
Ġes tan
Ġqu iz
ĠB rig
ĠD VD
Ġcos a
Ġpa trocin
Ġl anza
er e
Ġmis iones
ĠT am
A m
Ġh ol
Ġ192 9
Ġsir ve
Ġdirig ir
f un
ĠRoy al
Ġres oluciÃ³n
Ġacep tÃ³
Ġdetal les
ĠE lec
Ġden un
Ġcaracter iza
Ġexcep to
Ġra za
ĠB au
Ġpas aron
u ch
ĠMe dio
ĠL en
ĠBo gotÃ¡
Ġinvestig adores
Ġartill erÃŃa
ĠH ill
Ġconstitu ciÃ³n
Ġpor tada
Ġaconte cimientos
ĠIn cl
ĠTom Ã¡s
b all
e e
ĠR y
Ġoblig ado
va ciones
Ġrealiz adas
Ġleg is
eci endo
Ġb rin
Ġe c
Ġas istencia
ti an
h al
Ġactu ar
Ġba ile
Ġmanten imiento
Ġrespons abilidad
Ġ7 5
Ġprevi amente
7 7
ĠS ac
Ġcontrol ar
Ġven der
ĠNa v
til idad
Ġv iento
Ġis rael
Ġn uestra
Ġpri vileg
Ġconex iÃ³n
Ġ193 5
Ġe fici
Ġna ves
ivers ario
ĠfÃ¡cil mente
Ġestudi ante
Ġl lan
Ã© la
e dades
Ġparti da
m ul
Ġh all
ĠB iblioteca
Ġencuen tros
Ġvideoj uego
Ġdimens iones
g l
ar iamente
Ġeurope a
ĠV in
Ġres pal
Ġcombusti ble
Ġtar eas
Ġh un
grÃ¡f icos
Ġpapel es
Ġser es
ĠMar ia
Ġofre ciÃ³
ĠN aciÃ³n
ĠC op
Ġg esti
Ã³ f
Ġjue z
ĠS t
Ġil um
ĠAr t
Ġver tic
Ġfuer an
Ġexplo taciÃ³n
Ãº car
cion Ã³
ĠB lo
Ġinvi tado
Ġconflic tos
Ġfemen ino
Ġcre ciente
ĠMendo za
tropolit ana
Ġcabal lo
Ġv id
Ġal o
Ġal co
Ġsu minis
Ġnues tro
Ġconse gu
Ġa gres
Ġsacerdo te
Ġrele v
Ġp ac
Ġti ro
Ġj usti
Ġsex o
Ġmez cl
Ġexisten tes
us tin
Ġrit mo
Ġinstal aciÃ³n
Ġrebel des
Ġre form
u le
Ġterc ero
Ġhom os
Ġindependi entes
Ġch ino
ĠC ir
Al gunos
ue ve
ĠSal ud
ĠLo ve
Ã©l gica
ĠU E
ĠCor ona
uer ta
Ġac el
ce a
ti ble
l ando
ten ta
Ġllu vi
pu la
Ġconsider ar
cu enta
ĠAut Ã³n
re mo
der s
um ental
Ġhomos ex
it ando
paÃ± as
ÃŃ var
Ãº me
ĠIs la
Ġbar rios
ĠB ajo
mi rante
Ġd ada
n ie
Ġba ilar
Ġtempera turas
Ġg ris
Ġimpres ion
ĠacompaÃ± ado
Ġfan tas
Ġpo ca
Ġe uros
Ġdispu ta
Ġorganiz Ã³
' ,
Ġdeba te
Ġ193 2
Ġab rir
da je
ĠAdministra ciÃ³n
ĠInde pendencia
ĠL ic
tan as
ĠCom pany
Ġbu que
Ġpriv ado
it ados
Ġ191 7
8 5
ĠS p
ĠmÃ¡ quina
ĠcÃ¡r cel
Ġ195 1
ĠS ig
t Ã©l
Ġa gra
ĠAl onso
ĠPro du
ĠN ar
Ġsal var
Ġcastel lano
Ġgu ard
Ġde ca
ĠE ug
gan os
D A
Ġv Ã¡l
Ġdeber ÃŃa
ĠTor res
Ġcal or
mpo co
es en
Ġsepar aciÃ³n
Ġpobl ado
Ġc ens
Ġcuar tos
am ora
Ġtes is
Ġp ion
Ġpar ale
C as
ĠSegu ridad
to Ã±o
Ġnor ma
Ġintrodu cciÃ³n
Ġmostr ar
via ciÃ³n
Ġpudi era
Ġpre fer
Ġpor ta
Ġpresiden cial
t ta
Ġte Ã³r
ĠS ara
land Ã©s
hi te
ĠAndalu cÃŃa
am as
ĠBo y
Ġ6 5
Ġperson ales
Ġfrecu entemente
Ġayud Ã³
Ġpa trimonio
Ġcomp i
Ġventa ja
Ġta mpoco
Ġprim i
Ġconstitu cional
Ġvie jo
Ġofici nas
Ġon ce
Ġcin ta
ĠR um
ĠXI V
Ġaprob Ã³
it ch
Ġcur sos
Ġ( Â«
Ġreg las
ĠAÃ© rea
f al
cri pciÃ³n
ĠS un
j unto
Ġfuncion arios
Ġescla vos
Ġimp on
Ġorgan ismo
O r
ĠT ab
Ġofici na
Ġme tÃ¡
om ba
ĠTo k
Ġguer ras
Ġdestac ados
ĠIs las
ĠHol ly
Ġemi tiÃ³
Ġmanif ies
9 8
Ġdescub rimiento
Ġluch ar
ĠCol um
Ġatra c
6 6
ir Ã¡
Ġda ta
Ġinten tar
ĠMo vimiento
ĠV iena
Ġejecu tivo
Ġvi eron
cles i
Ã¡ i
Ġb Ã³
Ġpre de
Ġlib res
Ġpar tÃŃcu
ĠÃģlvar ez
ĠpÃ¡g inas
ĠNeg ro
Ġestrateg ia
ĠM Ãºsica
Ġdoc tr
Ġac t
Ġfoto grafÃŃa
ud al
Ġal guien
Ġrey es
Ġor ÃŃgenes
Ġconsidera ba
Ġnad ie
Ġl ingÃ¼
ĠPrim er
ĠH all
Ġguitar rista
Ġtradu cciÃ³n
ĠP ier
ul gar
Ġjug ando
Ġtrop ical
Ġb en
Ġintegr ado
% .
ÃŃ fer
ril la
z ados
Ġunivers o
ec tÃ¡
R a
ĠT w
i que
ĠG lo
Ġse mi
Ġequi p
Ġex tiende
Ã³m ica
ios o
ĠcaÃ± ones
ĠB ritÃ¡n
Ġinten tos
Ġinclu idos
if a
Ġpas os
quier en
Ġprogra m
ĠM ara
ĠK ir
Ã³lo gos
Ġredu cciÃ³n
p ens
Ġindi os
Ġsurg iÃ³
d am
Ġcam paÃ±as
es tre
ĠP ic
Ġderi va
us al
tr ales
Ġ191 4
Ġsac ri
Ġrecu peraciÃ³n
ĠrÃ¡p ida
Ġespos o
Ġescul tura
ĠLou is
Ġpo emas
Ġn oreste
Ġcien cias
ĠJa ime
n am
Ġrelacion adas
Ġhor iz
Ġinstr umento
ĠEn ter
Ġ19 19
Ġre tras
Ġlater ales
Ġcier re
M ad
Ġotor gÃ³
Ġprodu cen
Ġ192 8
ĠAmb os
Ġsuper vi
19 0
Ġva por
Ġac or
Ġten drÃŃa
Ġins tru
ed or
Ġmo tiv
Ġvolun tad
Ġre cre
Ã¡s ico
Ġex ter
ĠdiÃ³ cesis
A C
m ad
un e
um e
ĠDis ney
n al
gr ada
Ġorgan ismos
ĠR io
Ġso cio
enci ado
den al
Ġe gip
Ġdestac Ã³
Ġmor al
ĠB ran
Ġc uel
la ga
ten cias
ĠG or
Ġcl ÃŃn
Ġrefor mas
v ino
ĠOlÃŃmp icos
Ġbor do
ĠV e
Ġregis tros
ĠespaÃ±ol as
ĠJa co
Ġpol Ã©m
ig er
Ã©n ez
ĠA gr
ĠB il
Ġcu yas
jÃ©rci tos
ĠAu di
) "
tor n
r ÃŃ
ier to
ĠMu jer
Ġinferior es
Ġintelig encia
dill era
ÃŃ mp
ĠRe ina
Ġdes censo
Ġgub ernam
C or
Ġargu men
H is
er dos
Ġra ma
Ġcomenz ar
Ġsencil los
ĠT y
ĠL es
ĠFuer zas
Ġbel leza
ĠCar acas
Ġregres a
Ġ3 7
Ġorganiz ado
ĠSecre tario
ĠAmeric an
G ran
Ġpues ta
ĠcaÃ± Ã³n
ĠBlan ca
Ġfus ion
Ġg Ã³
N U
Ġa t
Ġson ora
Ġt onel
Ġmoder nos
ĠB Ã©lgica
Å «
tific ado
Ġa vis
Ġigu almente
/ /
ti que
Ġcr on
Ġaj us
ĠS w
Ġro pa
Ġir reg
eg os
ciden tales
6 7
Ġ za
B a
ĠR ad
Ġgrab ar
Ġan ima
Ġviv en
peona tos
en ce
p ciones
Ã¡ z
Ġpar ecer
Ġre gu
ĠAl ianza
Ġem isiÃ³n
D a
as te
Ġhistori adores
Ġprim aria
Na ciÃ³
Ġflu jo
Ġindividu ales
tr ica
Ġcristi ana
dis ta
Ġho tel
Ġl ine
iz ados
Ġ191 0
Ð ¾
Ġcon ferencia
Ġfis cal
Ġacce der
Ġcandida tos
Ġdefini tiva
Ġtrans iciÃ³n
Ġap un
Ġdes n
Ġh ectÃ¡
Ġra p
Ġemp ate
quis iciÃ³n
Ġar ras
tÃ³r ico
to logÃŃa
tan g
ÃŃn as
Ġes tancia
Ġman us
Ġsit Ãºa
Ġjuven tud
Ã©ndo le
Ġprotagon izada
c enta
Ġnor mas
ĠMonte video
Ġsol itario
Ġdispu tar
Ġh ielo
gar o
h or
Ġquin ta
Ġcuen tan
Ġcas co
Ġllev aba
Ġub ica
ĠAs turi
Ġtri pulaciÃ³n
Ġap ell
ĠdiÃ¡ metro
Ġmedi eval
Ġpose en
Ġdesem bar
ar s
Ġc iento
ar di
Ġf Ã³s
ĠF ab
Ġba hÃŃa
Ġta bl
6 4
Ġcin cuenta
Ġdestin ado
Ġano tÃ³
ĠA la
Ġrebel iÃ³n
Ġoscu ro
Ġz ar
ide z
Ġde tener
Ġcaus as
x o
Ġtra taba
Ġdemo cr
Ġgradu Ã³
i ri
Ġdepor tivo
Ġ +
Ġg es
Ġrelacion ado
Ġinv ad
Ġmon te
Ġinvers iÃ³n
Ġsemif inales
Ġbu enas
ĠP Ãºblica
Ġmusul manes
ĠMar gar
ĠEsco cia
Ġobten iendo
ĠIn fan
Ġpen al
Ġdef ine
ĠCor por
Ġca er
Ġempez aron
Ġcabal los
ar le
ĠP Ãºbl
Ġtur ismo
ma ciÃ³n
Ġres olver
ĠP am
Ġpos t
âĢ ¢
ti f
ĠPres iden
ĠTele visiÃ³n
ĠJef e
fici o
Ġenfo que
Ġev olucion
Ġdescri to
ĠB ir
ul t
ond uras
ĠReg ional
tall Ã³n
Ġhab ilidad
ĠT ol
ĠAr ch
Ġcos ech
p lic
rid ge
Ġdescubier to
di cas
Ġlib eraciÃ³n
ĠhipÃ³ tesis
9 2
c lo
h r
Ġdescri pciÃ³n
ĠJ an
ĠOr ganizaciÃ³n
all y
Ġvol cÃ¡n
Ġan iversario
ĠHa w
Ġintrodu jo
Ġp ira
ĠO tro
Ġfu ese
ĠCuer po
Ġcor o
Ġimp ar
ĠmÃ© dicos
tÃ¡n eamente
d um
ĠL y
Ġdiri ge
Ġsupon e
ĠEx terior
ĠD en
ĠGre en
he im
ĠEd ward
Ġurb ana
Ġsuce diÃ³
Ġcapa ces
Ġinflu encias
Ġcon tam
Ġconcen tr
Ġnoti cia
Ġen amor
ĠAtl Ã¡ntico
Ġi do
Ġproductor es
v ez
Ġreci entes
Ġtom ando
Ġc ielo
Ġer ror
Ġvendi Ã³
Ġcon cur
Ġf ib
Ġ ic
or ro
Ġclar amente
Ġni Ã±a
Ġre lo
Ġ4 8
ĠagrÃŃcol a
Ġeleg ir
tr ico
Ġenten der
Ġcons olid
ĠAd am
ÃŃ z
Ġpro hi
ĠÃ¡ cido
Ġban co
Ġlig eramente
Ġgol e
ĠSan t
Ġofre cer
ĠFo x
r ÃŃan
v ientes
Ġform aron
Ġper segu
Ġpri mo
Ġrecin to
gun o
ĠSco tt
h el
Ġimpues tos
Ġ1 20
ĠHu go
Ġe va
Ġconf igu
me j
ã ĥ
Ġinaugu rÃ³
ĠCar ibe
ĠC las
ci er
Ġinmedia to
Ġsa que
ĠO tras
Ġcandida tura
Ġder ri
Ġre ma
ci ado
Ġre a
ĠI ra
Ġpromo ver
Ġin ver
E A
Ġp ide
Ġsu l
tl Ã¡n
Ġprol ong
Ġconf ianza
ĠJ ones
Ġpatr Ã³n
Ġrevel Ã³
ĠS ir
ĠA ward
Ġcas ti
Ġcen ten
tar ias
Ġno ctur
Ġ192 5
Ġju z
ĠraÃŃ ces
ĠPol icÃŃa
di e
ur s
ĠP ers
Ġesti los
Ġdi al
Ġse cuencia
Ġin capa
Ġsu erte
ĠD ay
Ġhi po
Ġin du
in ter
Ãº o
Ġnego ciaciones
trÃ³ leo
Ġcomprom iso
Y a
Ġsub mar
Ġ192 4
Ġt ÃŃo
ĠPar ti
ÃŃs o
g io
Ġincorpor Ã³
ĠT ru
Ġtra tÃ³
Ġadi cionales
Ġcaus Ã³
S al
Ãº menes
Ġdeci siones
Ġdivi de
ad olid
ist ÃŃan
ĠD om
ro este
âĢ ¦
Ġestr ic
Å ¡
Ġjuris dicciÃ³n
Ġ ign
ĠMar cos
Ġinterpre tar
Ġdistr itos
Ġsatis fac
Ġju dicial
Ġdestru ir
7 2
ug e
Ġcaball erÃŃa
Ġrealiz ados
ĠBol ÃŃvar
Ġr usa
ĠAnd re
ic es
Ġespa cial
il as
ĠS ie
Ġles iÃ³n
Ġc aja
Ġsu ger
f ia
Ġpos tu
ĠS how
Ġmul titud
Ġre tro
Ġejerci cio
Ġemb ara
B S
ĠL im
Ġpun tu
i ti
ĠN Ãº
Ġcan ad
Ġaquel las
Ġbo ca
Ġhech a
ĠTec n
Ġo toÃ±o
Ġus Ã³
6 2
Ġt Ãºn
Ġpue dan
Ġparticip ado
Ġpare des
Ġau dio
Ġtempor al
ĠEje cu
ĠH onduras
mon d
Ġelim inar
: //
7 9
Ġtr ama
x i
id ro
Ġjapones a
Ġdismin uy
Ġescu ch
ĠmÃŃn imo
ay o
ĠJack son
Ġp ene
Ġcan ta
ol os
Ġsu reste
Ġdesapar iciÃ³n
ap ia
able mente
Ġrel ie
Ġdepen de
ec tos
ĠHern Ã¡ndez
Ġdom Ã©s
l ig
Ã ģ
ie dades
Ġtom ado
z co
Ġvideoj uegos
tr y
Ġ3 4
Ġro bo
ĠA v
Ġreun iÃ³
tiz aciÃ³n
Ġhab iendo
ĠMe jor
ip i
Ġconvir tieron
Ġreg ionales
t Ã©s
ĠAD N
Ġvice presidente
Ġal as
Ġar re
Ġf emin
ĠT op
os la
Ġ192 2
Ġlanz ada
a tor
cion ada
m m
Ġameric ano
Ġcan cel
Ġobserv ar
Ġ1 000
b ara
Ġre Ãºn
Ġven cer
Ġpe lo
ĠV ene
Ġe clesi
tor y
br al
an Ã¡
orm es
Ġc ementerio
Ġdiv isiones
Ġac titud
ĠW W
ĠHun grÃŃa
ac en
Ġamar illo
cor e
ĠSer ie
ĠhectÃ¡ reas
Ġtien da
Ġpr incesa
h t
% ,
Ġcircu ito
Ġinfan terÃŃa
ĠcomÃºn mente
g reg
ĠCa tedral
ĠRu iz
Ġingles es
Ġtar je
Ġter remo
ĠWilliam s
Ġest Ã©
ĠJo han
Ġso bres
ren de
pu blic
5 8
S on
eb ro
Ġapoy ar
Ġgraba ciones
% )
ĠVir gin
S ta
ĠJer usal
in cl
Ġform al
aj ara
Ġ192 7
Ġs ar
Ġalterna tiva
tain ment
g ido
Ġpe ticiÃ³n
Ġgra tu
Ġquin ce
ĠÂ ¿
l ados
ĠDire cciÃ³n
Ġacep tar
Ġsug iere
Ġpilo tos
Ġj er
Ġvege taciÃ³n
Ġjorn ada
Ġpresu puesto
uel to
N T
i tes
Ġapar iencia
Ġencar gÃ³
Ġ 000
Ġf all
Ġvo ces
Ã¡ u
ĠSocial ista
Ġrenun cia
Ġ )
Ġex istÃŃa
Ġdel ante
ĠM iss
ĠTim es
ĠMon t
ĠFil ip
Ġa ra
Ã¡m ico
ĠC in
ern es
Ġencar cel
Ġco di
Ġcre ando
Ġcolon ias
p us
is on
Ġpres erv
ĠTer esa
Ġh Ãºme
ĠJ unto
Ã¡m aras
Ġsigu ieron
Ġex posiciones
c aban
tn am
ĠHit ler
al da
P re
ne os
tÃ¡ r
Ġtrans fer
Ġtea tral
Ġgra ves
Ġreemplaz ado
Ġfutbol ista
Ġingen ierÃŃa
m ica
Ġherramien tas
ific ado
Ġ â
Ġcl ientes
Ġrecuer da
Ġprepar aciÃ³n
Ġal tar
Â ¿
Ġh in
ĠHon or
hi re
Ġempres ario
ĠMor eno
ĠNa tional
Ġc es
Ġper diendo
Ã³g ico
en cio
Ġna ciones
aliz adas
Ġci ta
Ġfemen ina
Ġrique za
ĠCla u
Ġres e
Ġvig il
Ġfracas o
ur re
Ġinter rump
Ã± ado
u alidad
il d
Ġsal as
ĠBa t
Ġl is
Ġcos to
Ġinterpre tado
Ġher manas
ĠVÃŃ ctor
Ġpre di
aman ca
Ġre col
Ġobten ido
Ġmencion ado
Ġsue Ã±o
s er
Ġlogr ado
ĠV III
ĠquÃŃm ica
Ġpre vis
Ġp istas
b ÃŃa
ĠA ri
ĠÃ© tn
Ġba ter
f Ã³nica
ci mo
ur ales
Ġauton omÃŃa
Ġin greso
ĠHolly wood
ches ter
Ġidi omas
Ġestable cieron
tra to
ĠCon fe
Ð ¸
ĠCor tes
ĠS pi
ĠbÃ³ ve
Ġmill Ã³n
Ġar cos
Ġcla us
ĠAd ri
Ġvir us
Ġ192 6
Ġcris tal
ĠA re
Ġinten s
Ġfuerte mente
ĠEn tonces
Ġreconoci da
Ġes tall
Ġneg ros
ĠAutÃ³n oma
Ġsal vo
Ġr in
ĠW ol
ĠG eo
C I
Ġ192 3
Ġtonel adas
Ġdes per
y er
ĠNor uega
Ġcuar enta
Ġcos tumb
1 00
Ġtel eno
Ġsor pres
Ġtom aron
ĠprÃ³ ximo
6 9
des te
5 3
Ġser Ã¡n
Ġrepar to
Ġindividu o
Ġvendi do
Ġintercam bio
ad y
im ientos
Ã³s itos
ĠF ord
Ġhi jas
Ġoc Ã©ano
uer as
Ġinmig rantes
m Ã³
Ġimp ul
Ġsa tÃ©l
ĠServi cio
Ġsup uso
ĠV ega
Ġhab itaciÃ³n
Ġpubl ica
Ġex ilio
Ġreci bieron
ĠI z
Ġmej ora
Ġasen tamiento
a de
Ġpais aje
dad or
Ġp ena
Ġcre ciÃ³
Ġpes os
Ġretir arse
th an
Ġper secu
cin g
ĠE P
Ġdiv or
Ġcontinu a
on ÃŃa
Ġade lan
Ġcer ro
Ġmec an
Ġperteneci entes
Ġemp u
Ġe rig
ĠRe ci
Ġna val
Ġconf un
ĠInterna tional
ĠAsturi as
Ġher idos
Ġperspec tiva
ĠComun ista
Ġarch ivos
Ġdibu jos
Ġter ra
Ġjapones es
ĠperiÃ³ dicos
ĠM ir
Ġasis tiÃ³
Ġsu ble
ĠT rin
Ġsex to
Ġsus pendi
Ġneces aria
ĠZel anda
Ġso porte
ĠJerusal Ã©n
8 8
es is
ĠR on
Ġres tantes
Ex isten
ÃŃ v
Ġpr Ã©s
te to
Ġpla ya
Ġda Ã±o
Ġvis itantes
Ã© u
Ġcl ara
tr i
Ġcos tas
b ul
m ir
Ġp las
Ġmec anismo
f ono
ĠBlan co
ĠS por
T ra
Ġre quis
Ġases or
Ġgri ega
Ġnucle ar
Ġincre men
Ġru tas
d onde
Ġproce dentes
Ġmen tal
Ġresiden tes
n m
Ġmu rieron
Ġd aba
ĠStre et
Ġital ianos
Ġin tr
Ġren unci
Ġdemo cracia
ĠF lores
Ġaven ida
ĠV asco
Ġterri torial
ĠS k
Ã³ so
Ġcircuns tancias
Ġdisposi tivo
Ġnota bles
o ta
ril l
Ġsitu aciones
tra ciones
Ġf Ã³rmula
Ġpo ema
ĠK im
Ġmo da
Ġfil as
Ġf lo
Ġ191 2
Ġfras e
Ġpar al
ĠF I
Ġpor centa
Ġeleg ida
ĠA cu
Ġcan tidades
um enta
Ġdesa f
Ġcontro vers
ĠCh amp
7 4
Ġtren es
Ġf ren
Ġmu dÃ³
ĠÃ¡ra bes
Ġcomen tÃ³
h um
do ws
ĠN et
Ġadi cional
bo a
Â ¡
Ġte cho
ing er
u ts
ĠseÃ± ala
Ġfir me
Ġb iblio
Ġsu roeste
Ġcom puestos
f el
ĠL am
ĠN ie
Ġp ico
Ġide al
Ġtradi ciones
ĠW res
ĠVall adolid
Ġasoci ado
Ġcan to
Ġrealiz ando
Ġen tidades
Ġliter aria
ĠT ay
ĠseÃ±al Ã³
Ġcam bia
Ġcab e
Ġ192 1
ci to
Ġte m
ÃŃs imo
Ġvol Ãºmenes
ĠProvin cial
Ġunivers al
Ġref uer
Ġrela to
Ġgr ados
ĠE p
Ġna ce
Ġdisposi tivos
y d
P e
Ġconci encia
Ġalcan za
Ġaprendiz aje
j ano
Ġsuper ar
Ġob is
Ġa er
Ġmar cas
Ġmar ÃŃti
Ġac ero
ĠM ora
ĠJun ior
Ġpelig ros
Ġpregun ta
ĠGu ti
Ġcam inos
ĠO tra
Ġequilib rio
ĠMar iano
Ġme lo
Ġpe trÃ³leo
Ġcas ado
ĠS pe
Ġc ientos
ĠEs cri
Ġinter me
ĠmÃ¡ quinas
ĠU cran
ed ores
Ġtor menta
Ġca fÃ©
k en
Ġin cur
ĠAl ba
Ġg la
Ġlim ita
g ran
Ġcoci na
que te
ju di
ĠespecÃŃ ficamente
Ġtemp rana
h y
9 6
ctor a
ide l
Ġs esiÃ³n
ios a
Ġrev is
Ġdej ado
Ġra mas
on i
Ġfil Ã³so
tiz ado
dis tas
ĠhÃ¡ bita
Ġmon eda
dis mo
i po
Ġ19 00
Ġen ca
Ġasal to
7 1
Ġco ord
con s
Ġdescendi entes
g i
ĠB ig
Ġmol Ã©
gu ardia
Ġlec tura
ar Ã¡n
Ġfrecu ente
Ã³cra ta
il do
r ich
Ġproporcion a
ĠD ec
Ġsegu ro
Ġh Ãºn
Ġcomun a
Ġvis itar
ĠD re
ida ciÃ³n
Ġmaes tros
Ġanti gÃ¼
ran da
ĠC ra
ĠDer echos
Ġocup ado
ĠPe Ã±a
Ġesper anza
Ġfirm ado
F inalmente
un as
ĠA R
ĠOfici na
Ġdecor aciÃ³n
v y
Ġcompe tir
Ġconce j
Ġt Ã¡c
ĠM es
er ba
Ġincendi o
m Ã¡s
Ġasegu rar
ci les
tÃ©r pre
Ġcarb ono
c ÃŃan
Ġest ando
Ġprepar a
in te
Ġpri or
ch el
Ġvol vieron
ecre to
Ġtumb a
ven cia
Ġpropie tario
Ġe jÃ©rcitos
Ġalrede dores
Pos teriormente
Ġemple ado
Ġconcl u
ac os
ĠP es
Ġay untamiento
Ġdescub rir
ĠF ron
i riÃ³
m un
Ġc og
tÃ³ bal
Ġ6 00
A M
Ġsec ciones
Ġdeci s
Ġqued an
Ġrebo tes
us t
re al
ol as
th ur
Ã³n ima
ĠC onde
Ġescri be
Ġpublic ados
Ġdependi endo
op la
Ġbenefici os
ĠS olo
ÃŃs ima
cip Ã³
Ġar zobispo
5 2
ĠCÃ¡ diz
ĠTer cera
ĠI mp
ĠInvesti gaciÃ³n
en tre
ĠG ib
ĠF ri
ul siÃ³n
Ġa pos
Ġtrans formaciÃ³n
Ġdes as
Ġesp ada
Ġrad ical
vi la
Ġvar iedades
Ġcos tos
ĠW ood
Ġchil ena
Ġgri egos
di ales
Ġsi erra
Ġan ar
Ġpermit ÃŃa
ĠLu cas
v ic
Ġci f
Ġa umenta
Ġtor neos
Ġconse cuencias
Ġras gos
Ġprote ÃŃnas
Ġcomple tar
k ins
Ġtrib us
Ġimp lica
te a
gu ar
Ġdomin go
Ġbal oncesto
gen a
Ġacab ar
Ġfun da
Ġhor m
Ã ī
ac ciÃ³n
Ġoportun idades
ĠAl ta
Ġib an
ĠDin amarca
ic ana
ĠO este
ĠGal icia
Ġextra ordin
7 3
bi das
Ġcon tienen
Ġizquier do
B u
5 9
Ġembaj ador
Ġco ber
ĠSe lecciÃ³n
r ones
Ġle er
Ġimpos ible
z z
ba o
Ġproduc ciones
6 3
ĠHum an
Ġinstal Ã³
Ġper ci
Ġb acter
ten a
Ġar gen
Ġ :
ĠGuadal ajara
Ġlanz ar
Ġte orÃŃas
Ġ17 0
Ġmone das
ĠLeg isla
Ġm uros
R O
Ġportugu Ã©s
Ġdistr ibuy
Ġdispon e
Ã³m ico
man dad
ĠV iv
ĠTo do
Ġ tam
Ġjuven il
Ġrefle x
ĠCap itÃ¡n
Ġcar ro
eg r
" Â»
Ġrecha zÃ³
Ġac on
Ġindi s
ĠJo e
B ill
Ġenfren tamiento
Ġt ono
Ġsub cam
Ġhab ita
ĠHo use
Ġllam ar
Ġcomien zan
iz as
ĠB ien
Ġrefer encias
Ġa pe
Ġde v
ĠAn te
ĠTrab aj
v istas
im nas
C am
Ã¡ndo la
ĠM ill
c ano
ÃŃ dos
Ġac tivos
ĠMÃ¡ laga
j am
l s
Ġelabor aciÃ³n
ĠprÃ³ xim
ĠPr ÃŃncipe
ĠW hite
r ador
c adores
Ġhaber se
ĠPue blo
Ġcuid ado
Ġequival ente
Ġm el
Ã© p
ĠR ÃŃos
ĠU N
i Ã¡n
ĠB ell
Ġmer can
Ġconce diÃ³
ĠOr questa
Ġt ensiÃ³n
ĠG ri
Ġch a
Ġcatal Ã¡n
v Ã¡n
Ġpar ed
Ġconstru yeron
ĠR an
now iki
en das
Ġres tric
a unque
Ġbus cando
ĠAug usto
Ġtien das
Ġmo d
ĠTur quÃŃa
tom as
Ġna tivos
6 1
Ġorganiz ar
ĠclÃ¡s icos
ec tor
Ġestatu a
ch t
ch en
ĠÂ ł
Ġinici ar
ĠB ab
Ġse man
ĠS istema
Ġdetermin ado
Ġd Ãºo
Ġsu puesto
Ġmes a
Ġdise Ã±os
Ġcelebr ado
Ġtor res
Ġcontinu aron
ĠMar co
on na
Ġdi chos
ĠNor th
Ġpobre za
h em
Ġconserv an
Ġex istente
ĠAl len
raz go
ciden tes
An tes
ĠindÃŃgen a
ici as
ĠN Ã¡
ĠMa tt
tam en
ĠMur cia
F C
pres en
P ero
Ġc Ã³n
Ġin cidente
ĠCon tin
Ġfoto grafÃŃas
T e
Ġinstitu to
Ġer mita
Ġc Ã¡
Ã©r rez
tr ada
Ġfru to
r adas
Ġcu mple
Ġi d
Ġcul tivos
m bre
Ġcompren de
Ġbra zo
v Ã©
Ġejer ciÃ³
Ġinform es
ĠRo dri
Ġenfren tar
ĠV is
ik a
Ġprofes ores
Ã¡f rica
Ġpie dras
Ġcon ferencias
ĠSal Ã³n
or th
ĠSo bre
Ġinterpre ta
Ġbril lante
Ġdepor tiva
ĠCris ti
Ġconoci mientos
Ġd anza
Ġrad ic
Ġno tas
ĠPa pa
ĠvÃŃcti ma
R I
Ġrecono cer
Ġde cÃŃa
Ġhi dr
c amiento
g aron
ÃŃ rez
ĠlÃŃ qu
Ġen com
Ġrom p
Ġconsider ados
ens es
ĠPa ulo
Ġtrabaj ado
Ġcamp amento
us k
Ġla d
ĠG i
ts u
mÃ¡ ticos
Ġelim ina
p uso
is ter
Ġb rig
ĠPue bla
ĠAr gentino
m el
Ġlim itada
or ado
Ġpes ca
ĠC r
ĠCris tÃ³bal
ĠSecre tarÃŃa
Ġestre cho
ÃŃfer os
Ġcuel lo
n ing
Ġdes f
Ã ¢
Ġc ero
Ġfus il
ĠR in
Ġcer Ã¡mica
M I
Ġpa tio
Ġ191 3
ĠPr incip
Ġre tom
Ġdie cis
r aron
Ġcul turas
Ġmer cados
Ġj am
Ġcompr ar
ĠC y
Ġelectr Ã³nica
Ġal dea
ĠP S
Ġintelec tual
5 6
Ġcre aron
u guay
Ġm ie
aj as
Ġpl eno
Ġargu mento
Ġin tÃ©rpre
Ġ3 9
Ġinfra estructura
Ġ191 6
eci da
Ġm ente
ĠAr turo
Ġag re
ĠacadÃ©m ico
tu res
Ġestren ada
ĠExterior es
ĠS imon
Ġr ÃŃ
Ġhog ares
f rad
Ġcol abora
truc ciones
Ġelev ado
Ġperu ano
un t
Ġemb le
C E
M on
Ġpob res
As ÃŃ
Ġm ac
Ġab ar
ol i
Ġro cas
Ġliber ales
Ġc Ã¡maras
D E
Ġtras pas
ĠUcran ia
Ġme mb
ĠSte ph
ĠBur gos
Ġdios es
Ġdar le
es u
Ġcentr ales
ĠRo jo
ug osla
Ġdeten ido
j eros
di ana
ara gua
y ac
ĠSal amanca
Ġoc cidentales
Ġ4 2
5 4
dad as
t una
Ġman z
Ġ25 0
J uan
P S
ĠWin dows
Ġ191 5
Î ±
Ġmues tras
Ġcorri entes
Ġcer ebro
g es
ĠT eo
Ġelim inado
ÃŃgen o
Ġre pÃºblica
Ġinaugu rado
Ġse mej
Ġcompr Ã³
Ġconcluy Ã³
ĠI X
ĠRiv era
Ġmu d
Ġprom ul
ĠGuti Ã©rrez
Ġpresen taron
Ġapar entemente
tan der
Ġenf renta
lam iento
Ġcon qu
Ġesper aba
Ġagru paciÃ³n
Ġcomp one
ĠJ ur
Ġacus ado
Ġsolici tÃ³
Ġprotes tas
Ġb eb
Ġcap tura
Ġcomba tes
ĠEnter tainment
ici almente
ĠF el
Ġcolombi ano
Ġus ada
Ġcolabor Ã³
aron es
ĠMa uri
ĠJohn son
i eros
ĠB ene
Ġmuer e
Ġde presiÃ³n
Ġlar gas
< /
di lla
ĠS el
Ã± Ã³n
ĠU s
ĠEste ban
Ġhuman idad
w ork
ĠH y
Ġexitos a
an til
ĠCar olina
Ġproporcion ar
Ġnin guno
ĠT Ã©cn
Ġsus p
ĠV ill
so cia
Ġpriv adas
te la
Ġn ervi
ĠMedi cina
ĠC E
Ġmar cador
in ando
ĠAlfre do
Ġmin as
Ġel e
Ġporcenta je
Ġsim bol
5 1
Ġcos te
m iso
Ġfundad ores
Ġvo taciÃ³n
ĠFran ces
Ġaz Ãºcar
Ġve ter
ti ma
Ġre ele
Ġofens iva
k h
tr ado
Ġper dieron
Ġman ga
Ġcomen tarios
Ġlabora torio
Ġas istente
Ġposib ilidades
Ġreun iones
Ġch ica
o per
u das
ĠC erro
Ġeurope as
Ġcuesti ones
Ġmon arca
Ġpar cialmente
ĠChamp ion
ĠCh o
Ġhoriz on
qu ero
Ġsen o
Ġ191 1
Ġencontr arse
ĠLatino amÃ©rica
Ġur uguay
Ġbu enos
ĠF an
ometra je
Ġcolec ciones
ĠF amil
Ġ6 4
ig an
itar ias
Ġp lu
tam os
gu i
y r
ĠH igh
ĠSud Ã¡frica
Ġabsolu ta
ĠUnivers al
Ġamis tos
Ġm ural
erva torio
Ã¡z quez
c ruz
lo w
ma c
Ġbo tÃ¡n
Ð µ
Ġperman ecer
Ġprofun da
ĠD ecreto
Ġab ad
i tor
Ġher mos
il y
Ġvein ti
l le
Ġreco pi
Ġdirector a
ĠSupre mo
Ġlater al
ĠU U
Ġde uda
Ġinter no
Ġor todo
es as
ĠIn terior
8 6
Ġviaj ar
cu laciÃ³n
Ġpublic ar
ad i
Ġdivers idad
Ġl enta
Ġre or
gu o
Ġg ab
ific ar
ĠComer cio
Ã¡n icos
ĠUn ited
ĠEurope o
Ġp ien
Ġpare jas
Ġv uelos
ĠS erg
Ġsepar ado
Ġpartid arios
ÃŃs mo
m erÃŃa
abe th
ion ado
ĠÃº til
ĠN u
Ġcre ÃŃa
Ġdi ver
lo gos
p ista
Ġrue das
Ġaf lu
Ġdis cur
p ur
ĠP l
Ġcom itÃ©
Ġm ara
Ġp le
ĠMa h
Ġdescri ta
]] ,
tÃ¡n do
Ġpar ecÃŃa
Ġr urales
Ġp eces
Ġta x
Ġlluvi as
Ġconcep tos
Ġr usos
r Ã¡
Ġcl im
Ġconstru cciones
Ġexten diÃ³
ia ciones
Ġfrecu entes
ĠYo ung
Ġper miso
Ġar ran
Ġmanifes taciones
Ġcor e
Ġpla ca
Ã³s tico
Ġr enta
Ġar ena
Ġreta blo
Ġmil las
Ġensay os
c Ã¡
it adas
Ġcompr endi
ĠÃ³r ganos
ĠInde pendi
Ġparticular es
Ġte cl
Ã± ar
t ÃŃas
Ġmer idi
Ġterres tre
Ġredu cido
Ġhac ÃŃan
ĠRa Ãºl
Ġnoble za
Ġe pi
r ores
Ġelim inaciÃ³n
Ġdefin ir
Ġa tm
Jos Ã©
Ġp endi
tan os
Ġutiliz aciÃ³n
b ili
ĠRam ÃŃrez
ĠJ r
Ġ" (
ĠS r
Ġalco hol
Ġas imismo
ol viÃ³
Ġdul ce
Ġale j
ĠGusta vo
ĠcapÃŃtu los
Ġab uelo
Ġpose ÃŃa
Ã©la go
Ġincre mento
Ġlar gos
Ġf Ã©r
Ġejer cer
ar y
Ġen ga
Ġdepor tes
ĠcÃ© le
Ġdepartam entos
Ġdue Ã±o
ĠR ib
Ġj azz
Ġapell ido
Ġreconstru cciÃ³n
. ),
ĠVene cia
Ġcam is
omb ra
tric es
Ġreg ul
Ġjun ta
Ġoblig Ã³
Ġcolon os
Ġdiri gentes
ĠsÃŃn tomas
Ġintegra ciÃ³n
Ġesta tus
Ġorien taciÃ³n
ti miento
Ġpol ic
ĠBri an
ĠSo uth
Ġses iones
ĠMil Ã¡n
Ġrum bo
Ġd ur
s car
Ġno bles
Ġsol ista
a ves
tl ing
ĠJim Ã©nez
Ġelec tor
Ġper pe
is tÃ³
Ġpar ecen
Ġjard ines
Ġnega tiva
Ġal i
Ġlide razgo
u to
Ġmu ro
Ġevi dente
H asta
ĠHo t
Ġv ÃŃn
ĠSi ria
gan da
ar re
ĠEs tre
Ġproven ientes
ĠG ame
Ġprofes ora
Ġcomp ro
Ġcol eg
ĠJo an
Ġcostumb res
Ġrepresen tado
Ġcuad rados
ci ta
ce des
Ġexper iencias
Ġviv ienda
Ġg ama
ĠÃ ļ
ĠHo y
ĠHer rera
Ġfr ÃŃo
ĠGobern ador
Ġb ando
Ġatm Ã³s
ĠCol onia
Ġco ches
Ġsuces iÃ³n
Ġpro puestas
Ġpl ena
Ġpas e
Ġfron teras
Ġcerc anos
te or
Ġba tallas
Ã¡s ticos
ĠCol Ã³n
ĠC Ã³
Ġpresenta ciones
ĠD C
Ġaumen tÃ³
Ġreno v
Ġpa ciente
Ġviv ÃŃa
Ġenter rado
Ġrenun ciÃ³
yec to
Ġtaller es
ina ciones
ĠpartÃŃcu las
ĠB BC
Ġex ces
Ġjef es
ĠG io
9 7
ie ta
Ġindustr iales
am ba
Ġenvi ar
Ġinten sidad
Ġconte mp
Ġenla ce
Ġsa ga
ĠWal ter
ĠBos ton
Ġcual quiera
for mas
ĠS tr
Ġvis itÃ³
Ġmis terios
ĠPre mios
ĠagrÃŃcol as
Ġg ala
ĠL ong
Ġci fra
ĠWil son
ĠautÃ³n oma
Ġsen ador
Ġde terior
l im
Ġas tr
Ġsoci edades
Es paÃ±a
Ġdivi dido
gen cias
cin as
g s
Ġdemos trÃ³
Ġh am
Ġsi ente
um as
ĠÃŃn dice
i i
til las
Ġses enta
ĠBern ardo
cion a
tu des
Ġpron unci
Ġcan tar
Ġru inas
Ġinscri pciÃ³n
iam i
Ġimp ro
ĠW ay
Ġllev ando
ĠseÃ± ales
Ġv ientos
and ra
Ġg re
Ġrecom en
fic ar
ĠI rÃ¡n
Ġnombr ada
ĠD ig
Ã¡n tica
Ġdro gas
Ġirreg ular
Ġre pi
ĠVil lar
Ġcrim en
Ġentre gÃ³
5 7
Ġcontin ental
can es
Ġespiri tual
tt le
Ġaf ro
s an
Ġins piraciÃ³n
Ġpol ici
ĠM ul
Ġacu mul
Ġ zo
us h
Ġcomp lic
Ġexcel ente
ÃŃ lica
Ġa tle
lo va
Ġcu entos
Ġpre ven
ĠT ony
Ġsuper vis
ĠImper ial
Ġf lan
ĠantigÃ¼ edad
Ġa go
Ã¡n s
ĠO ne
Ġden unci
Ġemp rendi
Ġj esu
T C
Ġpens ar
y ente
las h
Ġrepresenta ciones
Ġcampes inos
Ġma ÃŃz
lor ia
Ġrecono ce
Ġorganiz a
ĠAten as
ĠRob in
Ġcristi anismo
p p
te cciÃ³n
adÃ¡ ver
ol es
ch us
Ġtal ento
Ġbaj os
ĠEm ilio
Ġv il
Ġc ria
Ġpersecu ciÃ³n
Ġcono cen
ĠW h
cu las
Ġprodu jeron
Ġsegu ÃŃa
ĠConfe deraciÃ³n
tor nos
Ġnues tros
Ġalber ga
Ġac os
Ġhue vos
b ri
ĠF ra
ĠGreg orio
Ġal ine
dr os
ĠMedi terrÃ¡neo
ĠNic aragua
Ġescen arios
Ġaco g
il an
n s
ĠVirgin ia
Ġadqui rir
R E
Ġv ul
Ġperten ecÃŃa
Ġ4 4
ĠI gu
ĠMa ch
Ġd uro
ĠNa pole
9 3
Ġde mon
Ġro ja
Ġ Å
ĠM all
Ġanima ciÃ³n
Ġl Ã¡
Ġpar o
Ġle al
Ġmo vil
Ġace ite
t ter
w ar
Ġimp e
Ġo ch
Ġver se
Ġca z
Ġcor rupciÃ³n
fec to
Ġacep ta
Ġher ido
Ġinvi tados
ĠGeorg ia
et te
Ġarch ivo
Î ¿
Ã¼ r
ĠN ight
Ġbra zos
f u
ĠXX I
Ġcircu laciÃ³n
ĠK enn
Ġreconoci Ã³
ĠS tone
Ã©n dez
ĠG an
Ġcir cular
la je
ĠM ike
ĠHab ana
Ġde vo
Ġfic ti
Ġprecis amente
ac re
Ġsem illas
g ente
ĠG old
Ġse p
w is
Ġcuad ros
Ã³n de
ab o
ĠAt lan
Ġdej aron
ĠN ik
Ġdemostr ado
er es
Ġcondu jo
Ġproce dimiento
Ġjur ado
Ġllu via
ĠBil bao
Ġjud ÃŃa
Ġcul p
ca ciones
ĠhÃ©ro e
Ġcor tes
Ġno ve
Ġcar denal
Ġde vol
Ġcuesti on
qu era
Ġfalle cimiento
Ġconstitu yen
Ġc adÃ¡ver
Ġa pa
Ġfam osos
ĠGuer rero
T h
ra ba
cion ario
9 4
ĠaÃ© rea
Ġca e
Ġensay o
Ġfun cional
Es tu
R es
ĠD am
ĠK u
Ġadop tÃ³
ĠPa ch
Ġapro pi
ĠS um
ĠRodri go
Ġpar cial
Ġtrabaj aba
Ġfo tos
ell y
Ġcu an
ĠCu en
Ġad or
ĠMor ales
ĠBau tista
greg aciÃ³n
Ġin com
Ġcomposi ciones
Ġb ro
Ġdisco grÃ¡fica
Ġrespon diÃ³
dor o
Ġdiscipl ina
ĠO f
ĠcÃŃr culo
Ġdibu jo
Ġespec ÃŃfico
ĠN BA
Ġconden ado
ĠP ad
ĠEs cu
Ġb omba
Ã©l ix
ĠSte ve
bo x
Ġsen tencia
ĠC alle
Ġneces arios
ĠW es
k ar
ĠGu z
er se
ĠCatal ina
Ġpuer tos
lan es
Ġ8 00
Ġalgun o
w an
e jas
Ġten drÃ¡
ĠA eropuerto
Ã «
ĠelÃ©ctr ico
ic Ã³p
Ġen tus
S h
f ar
Ġmie do
Ġviv ÃŃan
ĠSupre ma
Ġten ga
Ġad vers
Ġimp i
T P
Ġ om
ĠCon ferencia
om pe
ce ta
dal ena
Ġan illo
Ġhi per
ĠGran d
der son
br en
Ġcomun icaciones
Ġgana derÃŃa
ĠAlex ander
Ġapar ecieron
ĠCu enta
cen as
F or
Ġp Ã¡
Ġtecn ologÃŃas
Ġo posi
Ġ190 5
ĠJ ord
ĠSan tander
pol es
e Ã±o
Ġsocial ista
Ġclas ifica
ĠMo der
ĠR ick
Ġpubl icidad
Ġunif orme
Ġg alle
Ġven tanas
ĠOs car
Es tÃ¡
ura cÃ¡n
espe ci
Ġcober tura
Ġre torno
Ġdificul tad
Ġgener ar
tir se
Ã¡ ce
qui ta
8 7
Ġfa una
Ġsex uales
Ġalcanz ado
a ca
x ido
gr Ã³
ĠBa ch
Ġrespe to
9 1
ĠZ e
Ġpier de
ĠE mb
Ġhu ir
Ġllev ada
Ġhere dero
Ġarm ada
Ġpis os
ros s
ĠS ong
nes to
Ġam iga
er ales
rig ht
Ġrefer irse
ĠEjecu tivo
ĠA par
Ġman io
G ra
Ġapar iciones
ĠcatÃ³ licos
Ġdem ol
cion amiento
ĠT r
Ġcontras te
bur y
Ġpobl adores
titu des
ĠaÃ© reo
Ġins tancia
Ġmar quÃ©s
ab ell
ed y
Ġa gencia
Ġcoop eraciÃ³n
oso tros
Ġtrib unal
og ÃŃa
m Ã³n
et y
u pe
Ġre torn
Ġvi das
A N
Ġigual dad
Ġpermi tiendo
Ġdis cre
Ġdivi dida
Ġpe dir
Ġis l
bi tos
Ġb lin
20 10
Ġan fi
8 4
Ġbas ados
or ca
Ġun ieron
ĠF la
Ġme tro
C al
Ġmar ina
Ġtermin al
col o
mor e
tron omÃŃa
h l
ien ta
O tro
Ġalcanz ando
er ÃŃas
gan za
ĠCen ter
Ġdesapar ecido
Ġintegr Ã³
d amente
ĠP adre
Ġrev isiÃ³n
Ġacre di
ĠAma z
m us
pa ciones
Ġde pos
Ġ190 8
ĠH Ã©
v ard
Ġtr am
h ard
Ġ onda
tr ing
Ġv ital
Ġma pa
Ġeleg idos
Ġo jo
Ġus ados
Ġabandon ado
ĠColum bia
ĠAn des
ĠLi bre
ĠJ ac
ĠHar ris
Ġliter ario
Ġco ti
Ġreti ro
Ġru p
Ġfil me
ĠGra cias
ĠautomÃ³vil es
ĠFilip inas
ar ch
Ġdescri bir
g ara
Ġsufici entemente
Ġresi du
ĠatmÃ³s fera
ĠAn na
Ġeva cu
I s
Ġhal laz
Ġ5 5
Ġmis ion
ĠTrab ajo
ĠAs socia
Ġvis ual
Ġvari ante
Ġp ec
Ġprofun do
Ã³ geno
Ġson idos
ĠVer de
Ġterremo to
ĠPu ente
Ġab arca
Ġdescon o
âĢĶ .
Ġcor reg
Ġcomple tÃ³
Ġalim entaciÃ³n
Ġasoci ados
ĠReg imiento
Ġafi cionados
Ġinterpre tada
Ã¡n dal
Ġno via
Ġacu erdos
ÃŃs ica
ĠK ong
Ġperten ecen
Ġan uales
ĠRe laciones
ĠVal enci
ĠdÃ© bil
ĠPa trimonio
Ġdi chas
ĠHa cienda
Ġestre cha
Ġmonta Ã±os
ĠG ales
Ġselec cionado
ĠAs unciÃ³n
Ġper fil
cion ista
Ġven ciÃ³
Ġcu ra
Ġaso ciaciones
ĠI ll
ris to
Ġdi entes
Ġe tique
Ġrom per
Con s
cis ta
Ġbenefici o
Ġaut omo
Ġren ombr
Ġvari able
estiv ales
Ġpar Ã¡
cen o
Ġelig iÃ³
A F
Ġrespons ables
it ter
Ġentr adas
Ġasis tir
Ġorganiz ada
ĠM ira
ce lo
Ġescul tor
icis mo
ie go
van ia
Ġconcl usiÃ³n
et ta
Ġco ordin
Ġcanad iense
ub er
tor s
Ġmec Ã¡nica
ĠJ ug
Ġesper ar
ĠRe public
Ġescul turas
h ib
Ġmar cado
Ġch ina
n ar
Ġprotes ta
I T
Ġsober anÃŃa
ĠVie tnam
Ġper ro
Ġse pul
alle ciÃ³
ĠH ans
ga ta
g ico
ci Ã©ndose
Ð ½
Ġm s
g eo
ĠPier re
les s
ĠÃºn icos
Ġtre ce
Ġsuje to
ĠCarta gena
Ġt ens
P C
ĠM iami
tu a
Ġexper tos
v ich
Ġro ca
pues tamente
Ġrela tos
Ġpropie tarios
Ġman d
ĠFo ot
c Ã©n
ĠÃ³ p
in adas
Ġan trop
Ġapar te
O tros
Ġinici ales
Ġ190 6
O R
ĠRiv er
Ġsol dado
itu des
Ġintegr ada
ec os
Ġci ma
8 3
Ġcomba tir
Ġasen tamientos
Ġexten sa
ĠBro ad
de as
Ġne uro
ĠpÃ©r didas
Ġf la
inten do
ĠcatÃ³ lico
Ġpla zas
Ġacel er
vier an
[ [
Ġal tamente
Ġi da
ĠSil va
Ġcl iente
Ġcons istÃŃa
Ġaut Ã©n
pe d
Ġcontinu idad
ĠtÃ©cn icos
Ġexplos iÃ³n
Ġsin dica
Ġtrans cur
Ġsovi Ã©tico
Ġsegu ra
ĠGuz mÃ¡n
8 9
Ġpre mi
ĠSerg io
Ġsecund arios
it aron
k es
Ġcru cero
Ġhel icÃ³p
Ġencontr amos
Ġcur va
U no
ĠC ien
ĠUn idad
' t
8 2
ten s
ĠEcon omÃŃa
! "
' .
Ġsan to
Ġcorrespon dientes
Ġfundamental mente
h on
ĠespectÃ¡ culos
Ġer rores
ĠDo ug
ĠRom ero
Ġparale lo
Ġpe or
Ġdis oluciÃ³n
ĠA Ã±o
Ġteleno vela
ĠS tra
Ġcomp ens
Ġestar ÃŃa
ĠEx isten
Ġanun cio
Ġreda c
Ġch inos
leg Ã³
Ġindi can
ĠZ amora
ĠCor n
Ġtermin ado
ĠQu ito
Ġres table
ir ÃŃa
ĠEsta tal
Ġaven turas
ĠE ric
Ġsuf rido
iz adas
Ġher ed
rue cos
Ġlib ras
ĠA C
Ġmodi ficaciones
Ġsuf rir
Ġconcre to
ÃŃf ica
Ġcaptur ado
Ġgan aron
Ġprestig io
Ġsorpres a
ĠT el
ĠMed ina
ida e
Ġnombra miento
im al
ĠAl bert
Ġpr omin
Ġescritor a
b Ã³n
ĠCh an
ĠCu ar
con oci
Ġven ce
Ġ189 0
Ġmejor as
Ġproductor a
ĠD un
Ġ190 9
ĠCu atro
Ġextrem adamente
Ġprecis iÃ³n
Ġapo yÃ³
ĠCom p
ĠO x
Ġfil os
Ġmecan ismos
Ġlim itado
- ,
ĠIncl uso
Ġvocal ista
Ġconten idos
id ar
Ġdedi ca
Ġentre gar
ĠFil osofÃŃa
Ġprotagon istas
ÃŃ ticas
ĠÃ į
Ġol ÃŃmp
ĠprÃ³ xima
Ã©ndo lo
ta b
Ġescu char
ĠBo w
Ġinaugu raciÃ³n
ĠH ea
Ġca denas
Y o
Ġdoctor ado
re c
iz ca
et t
Ġmate mÃ¡ticas
M E
tor ce
Ġas unto
ĠPo der
ĠGu in
Ġenfren tarse
ĠConstan tin
Ġinterpre tando
ĠA th
ĠMc C
Ġcur s
ĠM ans
Ġdoctr ina
Ġconvertir ÃŃa
Ġsenti mientos
Ġlanz aron
eci dos
us ia
ĠRos s
ĠP ales
Ġampl iaciÃ³n
ĠJu ana
Ġemp laz
Ġtan ques
Ġins er
Ġter cio
ĠLiber tad
Ġban cos
Ġh osp
Ġsuce dido
am entos
ad u
Ġc itado
Ġperman ece
Ġsig las
f eo
2 000
im no
ĠEx tre
et ti
Ġfuncion a
jer as
p ero
Ġmane jo
ĠB ib
p ados
Ġcontra tado
ĠR em
j era
I N
Ġgab inete
da y
ĠR oll
cien de
Ġexplic ar
ĠsÃ©pti mo
iz aciones
ĠNa tural
ĠÃ©po cas
Ġfrances as
ĠRo jas
Ġcontribuy Ã³
O tra
Ġdestac ando
Ġvir tud
Ġpe da
R eg
ĠMer cedes
Ġrelacion ada
Ġal tern
Ġcer rado
ĠTay lor
Ġretra to
ĠmÃ© dica
ĠNÃ¡ poles
ĠMay o
Ġlec he
ĠTer ri
ĠZ o
Ġcab le
Ġlegis laciÃ³n
ĠUE FA
a Ã±os
Ġcom an
ĠZ ona
Ġreci biendo
ĠEs taciÃ³n
Ġcal ificaciÃ³n
Ġmon stru
Ġmencion ar
ĠR ol
Ġm ue
Ġconj untos
ha us
Ñ Ģ
ĠMag dalena
a ger
Ġidentific ar
ph y
Ġsobr ino
Ġsustitu ido
roso ft
ĠK n
Ġotor gado
Ġdiscu siÃ³n
Ġcu idad
cil io
Ġor illas
Ġc ro
Ġpar lamento
di cal
Ġid Ã©n
ĠEl iz
Ġ190 7
Ġfundam entales
D el
du la
b ack
c ens
ĠNapole Ã³n
Ġinter n
Ġcercan as
ĠLa w
Ġsal Ã³n
Ġab ol
m ero
Ġes ter
Ġpro puesto
Ġfas es
un tamente
landes a
ĠCon ven
is tir
Ġpudi eran
Ġs ho
S tar
Ġjud ÃŃo
Ġcub rir
Ġpro xim
Ġ5 2
ul la
Ġdi arios
ĠC ru
Ġconm emor
Bill board
ĠÃģlvar o
Ġtr on
Ġp ales
Ġsuf rag
Ġg usto
te m
it en
g aba
ĠAs untos
Ġro daje
Ġor nam
ques a
Ġsus tan
Ġher encia
rede dor
Ġcarb Ã³n
Ġpin tores
Ġmas as
o is
ri go
Ġleg ales
200 7
ĠEmp res
th y
Mad rid
ĠPas cu
ĠDipu tados
ĠCla us
ĠC erv
ho y
Ġmor tal
h tt
Ġcop ia
ĠWW E
ĠNa vidad
Ġcuar tel
Ġrelie ve
Ġfalle cido
g ia
ĠBa hÃŃa
Ġpare cido
Ġdes ierto
Ġvari antes
ĠS to
Ġ190 4
Ġconsigu iendo
Ġdia gn
cri p
Ġelec tro
Ġprofes iÃ³n
ĠI t
d t
on to
Ġres tring
ta mo
Ġimp lan
Ġtras lado
Ġcan tÃ³n
ĠN ick
ik o
Ġcambi ado
Ġcre ador
Ġ4 3
Ġsup rim
Â ´
f ol
Ġcon cesiÃ³n
Ġmanten iendo
Ġreg al
ĠSim Ã³n
ĠtÃŃp ico
a vi
h ara
Ġtradi cionalmente
Ġcatal og
Ġd Ã³nde
Ġvig or
Ġcomp uso
Ġestable cida
Ġdemostr ar
it tle
Ġrec tang
ĠA pertura
Ġf lex
Ġconten ÃŃa
or i
ton a
Ġocur rido
ĠP el
Ġreca ud
Ġrefug io
ones a
s ky
tr en
Ġatac Ã³
Ġad quisiciÃ³n
. -
ic ul
cu ra
Ġante ce
ĠF Ã©lix
an cias
Ġox ÃŃgeno
Ġvi uda
Ġcomun ista
Ġse min
ier an
Ġcelebr ar
Ġdoc ente
Ġimp ac
ĠEr nesto
Ġofre cen
ĠCris tina
ĠUnivers ity
Ġins pec
Ġfacil itar
le to
ĠSe a
Ġconsegu ido
Ġintelec tuales
A P
Ġun ido
ĠDa vis
Ġsacerdo tes
Ġapar ecido
ie mpo
Ġb on
iv in
Ġ188 0
ĠHum anos
cl ip
Ġpoder oso
Ġsu pre
Ġcor tos
ĠCab o
Ġte mÃ¡tica
ĠCom en
Ġpriv ados
ĠPro grama
Ġcel ular
ta je
ĠAr quitec
s ul
ĠG am
ug by
Ġcristi ano
Ġms nm
Ġven de
ĠFuer on
Ġvis itas
Ġps ico
Ġab ord
end ario
vo z
ĠsÃŃmb olos
ĠW at
Ġl la
Ġp ala
ĠPol ÃŃtica
Ġsos tiene
Ġcarre teras
ĠL ÃŃ
Ġtan tos
Ġcor dillera
Ġad ver
Ġsimp les
Ġincorpor aciÃ³n
tum bre
Ġc usto
Ġes quina
H e
Ġlar g
ĠI sa
Ġsal to
Es tos
ĠN intendo
Ġque m
Ġmon arquÃŃa
ible mente
Ġna z
Ġval enci
Ġdeclara ciones
er ie
Ġmo ver
Ġconstru idos
ĠPal ma
uer te
Ġten dr
Ġpreocu paciÃ³n
ĠWres tling
Ġco he
Ġen z
ĠV as
Ġdeb il
tÃ³r ica
ĠIndependi ente
Ġrepres iÃ³n
ĠRog er
ĠN an
ĠEstu di
Ġse tenta
Ġinici aron
Ġexitos o
Ġb r
ĠK ra
ĠPhil ip
Ġcons ol
ĠCh il
D os
ĠD ur
gu es
ĠMar vel
Ġso cios
ĠGonz alo
G o
ĠmÃ¡r mol
Ġ" Â«
fici ente
Ġcam peonatos
Ġinspir ado
8 1
ĠJ as
D i
Ġescol ar
se a
Ġconvo ca
Ġap res
Ġabsolu to
cri tos
Ġecon om
d re
Ġgeo grÃ¡fica
Ġrefle ja
ĠN Âº
ĠHo tel
ĠJ al
Ġutiliz adas
Ġoch enta
ĠÃ¡n gel
Ġreprodu cciÃ³n
ĠB aja
te ga
Ġprop one
Ġres al
tel la
Ġen can
ĠS Ã£o
Ġab aste
ĠRom ano
Ġaven tura
Ġquiz Ã¡s
Ġna zi
ĠHar ry
Ġprovo ca
Ġaprob ado
Ġcinemato grÃ¡fica
ĠO pera
Ġlabor al
Ġvac ÃŃo
ier ro
ĠT ig
Ġpre his
Ġqued ar
cil la
ĠÃ¡n gulo
Ġtra tados
con tin
Ġf estivales
ĠL ord
ab al
Ġcomerci antes
Ġign or
ĠM olina
Ġesca Ã±os
Ġjam Ã¡s
ue vas
Ġcomposi tores
Ġemer gencia
Ġpas an
idal go
Ġentre ten
Ġvar ÃŃa
ĠCam peones
Ġcen tra
Ġproce dente
Ġrepu taciÃ³n
Ġunivers itario
qui cia
ĠD entro
ers on
Ġcos tumbre
ĠTu vo
ĠMar ruecos
Ġefec tivo
Ġsovi Ã©ticos
u laciÃ³n
Ġ it
re os
Ġm ole
Ġelev ada
Ġimpres iÃ³n
r ico
Ġmad ri
Ġb in
Ġfrag mentos
Ġblan cas
ĠTu cu
ĠCh u
car riles
Ġtraslad ado
Ġqued ado
Ġsur ge
ĠP ens
ĠF ig
Ġdes po
Ġ187 0
ĠDomin icana
Ġgu ÃŃa
Ġin ex
Ġsi mpl
ĠL ive
Ġper egr
Ġbo da
Ġase dio
Ã©is bol
Ġsepar a
Ġiden tificaciÃ³n
Ġtr aje
Ġpas tor
cu siÃ³n
n iciÃ³n
Ġsing ular
ĠÃĵ scar
Ġatra vi
Ġco bre
Ġh ero
Ġproces iÃ³n
Ġimpul so
T er
ĠVie jo
Ġform almente
form ula
Ġdisminu ciÃ³n
Ġrelo j
ĠB un
Ġfil ial
ĠlÃŃqu ido
bi dos
Ġcomun istas
teg orÃŃa
Ġreg la
200 8
Ġgenera ciones
Ġpre via
Ġsu pl
ĠSu Ã¡rez
Ġfran co
ĠH il
ĠBar tol
for t
in an
Ġcas arse
ĠS S
Ġbrasile Ã±o
Ġenfren tamientos
Ġasum ir
Ġresca te
ĠTok io
Ġconfigu raciÃ³n
Ġal gor
Ġdistin ciÃ³n
ĠVar gas
g y
Ġca torce
Ġl um
ĠDu que
ci entos
Ġrad iaciÃ³n
Ġpuntu aciÃ³n
Ġor illa
ĠO rig
ti pos
i w
Ġreno vaciÃ³n
Sta tion
Ġmen ciÃ³n
ĠVic tor
Ġarm ado
iz os
Ġdelan tero
pi ro
Ġins ectos
Ġa den
Ġop ciones
SO E
ti er
Ġse co
p ica
M i
ĠK y
T S
Ġll eno
Ġsusp ensiÃ³n
inos a
Ġpro hibi
ĠJ ard
D entro
Ġ190 3
Ġcompe tencias
Ġadministra tiva
Ġpersonal idades
d om
alle t
Ġtemp los
Ġneu tr
Ġater riz
Ã ´
Ġmor f
Ġextre mos
Ġconstante mente
Ġecu aciÃ³n
ĠS ici
Ġman tienen
Ġpl en
Ġpor te
Ġfran quicia
Ġca udal
ar los
et ts
Ġprevis to
T E
ĠJ ar
Ġprede ces
ĠVal en
Ġmo to
ĠIn dias
ĠA M
20 11
Ġdirector es
ĠIngen ierÃŃa
Ġfinanci era
Ġdec ora
Ġsobres al
200 6
Ġg lu
z u
Ġh ar
ay as
Ġnacional idad
Ġfo tÃ³
Ġposi tiva
ĠEle ctor
Ġv Ã©r
ĠBen ito
t ÃŃan
ĠT anto
Ġreper torio
Ġb is
ĠnÃºcle os
Ġsu puestamente
Ġdes titu
ĠIn f
Ġcol ap
Ġemb al
Ġtra zado
ĠMe tro
Ġplan os
Ġapre ci
ĠcÃº pula
Ne w
Ġperiodis tas
Ġac aba
ĠperÃŃo dos
Ġto cÃ³
Ã©r icas
Ġnaveg aciÃ³n
Ġgas tos
Ġreempla zo
ĠLe wis
Ġaf il
Ġmascul ino
Ġcondu ce
Ġvir rey
p lan
Ġascendi do
Ġfru tos
ĠA k
Ġap render
Ġ4 1
ĠP s
Ġa me
T a
z go
Ġcerem on
Ġcontrovers ia
ĠA un
Ã¡n eo
Ġ( )
. ).
ĠmÃŃn ima
Ġgobern ante
dir se
ã Ĥ
ipi Ã©lago
Ġdesconoci do
Ġnu tr
C i
200 9
Ġdig itales
ĠNa val
Ġr ico
ĠH ong
l is
ĠVera cruz
Ġ13 0
Ġcaball ero
Ġsignifica tiva
ci so
b on
Ġpresiden ciales
Ġdeci den
Ġem isiones
a tion
ĠCan arias
Ġrecha zo
men tal
Ġtrans forma
Ã±o z
s ch
ĠRa cing
Ġr ica
Ġanim e
ĠJef f
c tiva
ĠChris tian
V al
Ġesta bilidad
Ġcubier to
Ġvar iaciones
ĠAm er
Ġhech as
Ġpermi tido
Ġre inos
Ġus os
Ġhis p
dr ich
Ġabund ante
um er
Ġambien tal
Ġact Ãºa
und amente
Ġcolo cÃ³
Ġpa de
ĠAr ro
Ġles iones
Ġ190 2
ĠK al
Ġau tÃ³
Ġex istÃŃan
Ġesc asa
Ġpre vio
Ġplata formas
Ġcorrespon den
Ġher idas
Ġv es
ĠL ara
Ġsepar ados
Ġcompon ente
Ġriv ales
Ġpo dido
Ġvertic al
Ġmo dos
ĠJane iro
Ġpol aco
Ġco orden
ĠDepor tes
Ġos ci
ĠA qu
Ġobserv aciÃ³n
C l
Ġgir as
Ġcri terios
Ġparticip ando
Ġlab ores
... ]
200 5
Ġconvo cado
ĠMi randa
ga z
Ġdomin ante
ĠMic rosoft
ĠtelÃ© fono
Ġtal la
Ġartifici al
fon ÃŃa
ĠbritÃ¡n icas
Ġma triz
Ġtej ido
P la
ĠH ard
Ġm Ã³
m il
cer es
se t
Ġ4 9
Ġcercan ÃŃas
ĠDemocr Ã¡tica
g Ã³n
Ġpres a
n or
Ġhum il
es iones
ĠM Ã¡r
Ġtra tando
Ġcomple jos
Ġar mon
ĠHis pano
Ġdestac ada
Ġvi ernes
Ä į
ĠU R
Ġemple a
Ġvid rio
on ales
on do
Ġfinal idad
Ġale manas
gu era
ĠP ese
ĠD y
Ġenfren taron
ĠS ho
g uer
ĠEs a
Ġadecu ado
t ten
Ġisrael ÃŃ
Ġins trucciones
ĠTele vis
ĠSam uel
Ġindustr ias
Ġs abor
Ġescri tas
Ġsorp rendi
ĠM id
Ġal u
Ġor ques
ĠbÃ¡s icos
Ġsin te
Ġ4 7
Ġen d
ĠAr thur
ĠFerro carril
dell ÃŃn
ĠGra m
ĠF is
Ġ4 6
M us
or y
Ġper ros
ĠFin al
frad ÃŃa
ĠN A
Ġexperim ental
ĠY u
ĠHÃ© ctor
Ġqu iso
Ġtrans ferencia
Ġfron ter
ĠCap ital
ĠSem ana
Ġpos tura
ĠMexic ana
Ġgrave dad
H er
cu b
Ġi ra
Ġexis tir
Ġcu bre
ĠaÃ±ad iÃ³
ĠFin landia
vi Äĩ
for tun
Ġgal erÃŃa
ie v
ĠcrÃŃ menes
ĠUnivers itario
Ġrepublic ano
ĠMas sa
tador as
min g
ĠfÃ³s iles
Ġmon umentos
ĠLiber tadores
C D
te dra
Ġaman te
Ġalgor it
uel ve
ĠC rim
Ġre hab
pa ce
Ġreserv as
ĠRev olucion
Ġg em
Ġmuer tes
ĠacadÃ©m icos
ĠhÃ¡bita t
Ġvis itante
Ġe cos
la o
Ġpro greso
Ġviv iendo
Ġinterac ciÃ³n
Ġinvesti gar
Ġsustitu ciÃ³n
ul ado
and ante
Ġima gin
ĠS Ã¡
Ġar bi
ĠTucu mÃ¡n
Ġexpe di
ĠInfan terÃŃa
Ġmis iles
ina to
ĠClau dio
Ġne er
ĠSud amÃ©rica
Ġdesarroll ada
His toria
Ġocup ada
Ġempres ar
ĠV lad
ĠP rado
ten se
Ġf omen
Ġra yos
Ġcuer das
ĠH idalgo
Ġa ve
pen den
ĠOfici al
Ġpu ra
dr ome
ug ÃŃa
ĠSoci ety
sh ip
ĠpolÃ©m ica
Q ue
men ia
ĠA lan
Ã¡s ticas
Ġca tÃ¡
Ġhem bras
om an
Ġl Ã³gica
Ġescuad ra
Ġcondu ctor
an al
ĠFlor encia
ĠGio van
Ġin us
Ġp ian
uy endo
ĠHis tÃ³rico
ĠMon tes
Â» )
ĠcontemporÃ¡n ea
Ġreci ben
m ico
ĠL yn
Ġloc alizado
Ġhe bre
ck er
ĠS ec
isten tes
ir man
Ġro b
ĠEl ena
Ġsac ar
Ġelectr icidad
Ġrela tiva
ĠTe am
Ġrecuper Ã³
ĠJ am
Ġev angel
u tas
s ta
Ġdesempe Ã±o
Ġes encial
ĠTrin idad
Ġesta tales
Ġval les
Ġv istas
ĠM emor
Ġrepresen tÃ³
Ġdestru ido
Ġf le
Ġexpres a
Ġs om
vi ente
Ġinteres ante
Ġadqui rido
ĠcrÃ©di tos
Ġsim il
Ġopera tivo
ĠbÃ³ve da
du ra
Ġpublic aron
ĠC Ã¡r
Ġten emos
Ġir re
U S
Ã¡r qu
ĠCor onel
ĠcaracterÃŃs tico
Ġac Ãºs
Ġestre ch
ĠThe a
Ġd arse
gr ad
Ġesque ma
Ġma chos
Ġprop on
Ġcap as
Ġsignifica tivo
para ÃŃso
ĠBill board
ĠNorte amÃ©rica
ĠhistÃ³r icas
vi al
Ġk g
Ġdel ito
Ġrode ado
vi da
Ġma ta
Ġelectr Ã³nico
Ġpresen tada
b laciÃ³n
ĠBro ok
Ġentre vistas
Ġfor tuna
Ġexterior es
c m
Ã³m icas
Ġencar gada
ĠMargar ita
Ġretir ado
Ġf lamen
ĠAu to
til los
Ġre an
Ġsec uela
ĠLib ro
ĠPlay Station
ĠMunicip io
Ġveci no
F u
Ġemi tido
G B
ion a
Ġmedi cam
Ġenvi ados
Ġrefug iados
Ġrup tura
Ã© e
Ġcon greso
A le
Ġconsiderable mente
Ġtr ajo
et ales
Ġsue los
em ora
Ġgaran tizar
Ġinvestig ador
Ġros tro
Ġpre f
Ġesc ar
Ġcar tu
ĠBl ue
k et
Ġcon gres
Ġreempla zar
Ġmoder nas
Ġliber ado
lu la
ĠGran des
Ġfinanci ero
Ġdel itos
cea e
Ġmam ÃŃferos
Ġf esti
Ġguar da
Ġfeder ales
di mientos
Ġest Ã©tica
ti entes
ome trÃŃa
ĠAn tio
cion istas
Ġingres ar
Ġfor es
ĠdifÃŃ ciles
ĠA cciÃ³n
Po co
Ġh arÃŃa
Ġfirm ar
di era
Ġdis fra
Ġparticip an
Ġbur gu
ĠMon ter
Ġprob abilidad
Ġre ivin
Ġimpe dir
Ã ¸
ĠMu Ã±oz
Ġdem uestra
Ġvenezol ano
Ġpara guay
Ġcelebr ada
ĠA bra
ĠS y
ĠKar l
ĠPer Ã³n
Ġdisc rim
Ġcompeti ciones
w ick
Ġpubl ici
Ġsub di
ĠÃ³r bita
il os
gu ila
Ġs Ãº
Ġrepresen tada
Ġintegr al
ci anos
D is
Ġhuel ga
ĠP un
ific ada
Ġaband ono
Ġsuf re
Ġextin ciÃ³n
ĠF Ã³rmula
ĠIs land
Ġser p
Ġhues os
Ġexperim entos
Ġrev uelta
ĠCon venciÃ³n
Ġcon forman
Ġemp e
Ġcre encia
Ġven tana
Ġ <
ĠH ip
ici Ã³
ĠIra k
Ġvari ables
Ġfol cl
Ġexac tamente
Ġgen es
Ġ189 8
Ġman tuvieron
Ġco pa
Ġotor ga
ĠOc cidente
Ã¡n icas
Ġmanten ido
ĠcontemporÃ¡n eos
ĠE mper
Ġpodr Ã¡
Ġecu ator
ar ra
ĠLiber al
ĠAward s
Ġexpres Ã³
ĠacadÃ©m ica
Ġbreve mente
Ġutiliz aron
Ġcal endario
Ġexp lÃŃ
ĠAz ul
x ia
Ġca tedr
Ġinten sa
Ġesp alda
Ġincorpor a
ĠCuen ca
Ġacep taciÃ³n
T iene
gra ciÃ³n
ĠPre mi
ĠA Ã±os
Su per
Ġen tera
Ġac tivamente
ie te
tr icos
Ġmarch Ã³
f ran
Ġdepor tivos
Ġresta u
Ġbomb as
200 4
Ġvul ner
ĠEs pa
Ġvis ible
ĠB i
ch ill
ĠO h
Ã± e
Ġconsigu ieron
Ġremon ta
ĠS A
Ġto ler
p ico
ĠMar s
ĠLis boa
Ġhabitu almente
Ġparti Ã³
Ã¶ r
Ġp isto
ĠFoot ball
Ġcru ce
ĠO peraciÃ³n
ĠS hi
la ba
ĠA P
Ġpron un
ĠAn tÃ¡r
Ġcru zar
Ġllam arse
Ġdi m
tar o
Ġedi tado
ĠAl ma
Ġin n
Ġfu tur
ĠMich el
Ġcondu cta
C ada
ti za
Ġimple men
ĠEv angel
âĢ ĭ
Ġsan tuario
ĠR i
Ġpar es
qu en
ĠAs h
Ġmens ajes
Ġdes h
bo ok
Ġregistr ado
Ġpatr iar
v ados
Ġins ign
pe dia
urre cciÃ³n
Ġproce de
Ġb ici
ff s
eg ro
bus es
Ã¨ re
Ġsex ta
Ġpresiden ta
vie do
Ġdel im
ĠpÃºbl icamente
Ġblo ques
Ġ186 0
Ġre ctor
b is
ĠC lo
Ġmar car
Ġse di
Ġpe trol
ke y
Ġrecur so
Ġres ponde
ĠPa k
Ġbo x
or os
20 12
ĠEspe cial
Ġsu yo
Al gunas
Ġfavor able
g uerra
Ġes par
Ġllam aba
Ġhum anas
Ġdescans o
Ġn aran
ie bre
Ġdesarroll aron
Ġpropor ciÃ³n
v ina
ĠdiÃ¡ logo
ĠL og
Ġavan ces
ĠBrig ada
ĠMar ie
ĠRu ta
Ġcoorden adas
e jo
Ġapro xima
Ġconf irma
Ġsolu ciones
Ġ5 1
tal in
el ia
ĠbÃ¡s ica
ĠA pol
Jo hn
Ġguar dia
igu iÃ³
Ġpros per
C ap
Ġbol ivi
Ġclasific ado
Ġobis pos
ĠConstantin opla
tr ar
em an
Ġan a
b ridge
g lo
Ġl an
ĠC ala
Ġsub especi
ĠCh am
Ġsab ÃŃa
ĠA dolfo
Ġgener Ã³
ĠM TV
Ġbarro co
in eros
Ġre cepciÃ³n
ĠT ime
Ġpe dido
Ġgig ante
w en
Ġta p
Ġcontr ad
Ġsu ave
Ġide ologÃŃa
Ġgig antes
Ġas amblea
ĠMe dellÃŃn
M en
ĠCal der
Ġcre encias
Ġrecha z
ĠcÃ©le bre
Ġreg imiento
Ġv el
Ġ190 1
ĠBern ard
Ġretra tos
Ġl unes
Å Ĥ
Ġin Ã©di
P h
cios o
s ur
ĠsÃŃn tesis
ĠCon dado
Ġguar niciÃ³n
ĠHa cia
Ġc Ã¡p
Ġap lica
Ġdefini tivo
ĠG Ã©n
Ġapar ato
Ġremo de
vi ta
th o
g arse
ĠOr tiz
Ġcan tantes
Ġc landes
Ġcontinu o
Ġho ja
Ġescla vi
Ġtrans curso
ar cas
Ġtemp rano
ec on
) ",
Ġpoten cias
ĠGro up
j ug
tr all
Ġreac ciones
g rano
ĠN el
lu es
iz ando
Ãºn ich
Ġcre en
Ġases ino
Ġapoy ado
ĠtÃŃp ica
Ġcif ras
ĠP it
ĠLa guna
Ġg l
ĠO a
Ġlevan tamiento
ĠRo ja
200 3
ili taciÃ³n
ĠSer bia
Ġprovo car
Ġsuces os
ĠRe ich
om or
ÃŃcu la
Ġconstitu yÃ³
ly n
Ġreal ista
im i
Ġcolec tivo
Ġp Ã¡r
iste mas
ĠJu Ã¡rez
graf os
ĠBo ca
Ġcaus ar
Ġposi tivo
E L
Ġib Ã©rica
Ġre vi
Ġcolo car
c eros
tr io
ĠcrÃ©di to
Ġimp uso
Ġilum inaciÃ³n
ap ro
Ġimpues to
s ol
Ġni Ã±as
Ġme tropolitana
Ġcomenz ando
ĠNor man
Ġconvers iÃ³n
Ġalf abe
co pa
Ġproclam Ã³
ĠSon y
Ġguion ista
ur go
ĠC iencia
Ġarquitec tos
Ġcontra jo
ĠAn n
pl ona
Ġintercam bi
ĠStu dios
ĠAnti guo
Ġor din
ĠfilÃ³so fo
van cia
Ġpatr ones
Ġasign ado
Ġcapa cidades
Ġa uge
Ġhab rÃŃan
s te
ĠQ uer
h ÃŃ
ĠS tor
Ġesc Ã¡ndal
ĠMujer es
Ġsecund ario
ĠS ing
Ï Ĥ
ws ki
ea u
Ġfuncion ar
E P
Ġme teor
if f
ĠWol f
Ġcondu cir
ĠU p
Ġtestimon io
T ube
Ġex terna
Ġinici ado
Ġrepresen tando
Ġsimp a
Ġdocu mentaciÃ³n
Ġherramien ta
il iar
Ġcaracter es
Ġvolun tarios
Ġalmacen amiento
Ġan ces
ĠB ut
b ec
Ġ" ",
Ġp echo
Ġprotagon izÃ³
ĠAl ic
Ġluch Ã³
Ġsu bir
ÃŃ l
Ġver des
ĠLeo pol
ĠgÃ³ tico
Ġcompar tir
olÃ³g icamente
Ñ ģ
ĠBru ce
Ġa mp
ĠY e
Ġinclu ÃŃan
Ġcon vi
ĠE ver
Ġvuel to
ĠSte ven
Ġminis tros
Ġr ar
Ġarro z
Ġdisco grÃ¡fico
Ġarm ados
Ġpe cul
ĠL and
Ġdep Ã³sitos
ĠK az
ĠC um
Ġinf in
Ġleg ado
Ġexplor aciÃ³n
Ġnie to
ti fica
20 13
Ġconform ado
ĠV ia
Ġreun ir
de re
Ġinclu idas
chus etts
Ġusu almente
Ġfa cul
ĠespecÃŃf icos
Ġabs tra
tor as
Ġreconoci dos
ĠcontemporÃ¡n eo
Ġrequis itos
qu ien
Ġt all
ĠL ife
Ġinterior es
E N
Ġintrodu cir
Ġpreten dÃŃa
Ġob tuvieron
ci no
Ġm ÃŃ
Ġes pon
Ġactu ando
Ġpla cas
Ġhis pano
ĠPe ters
Ġconqu ist
P res
Ġv arones
ĠO k
Ġtempor almente
Ġqued arse
to wn
Ġtej idos
Ġfan es
r Ã©
Ġatribuy e
as as
Ġad h
Ġentus ias
f is
Ġ7 00
Ġalim ento
ech a
Ġapo der
Ġcon tando
Ġal er
Ġmig ra
Ġcomple men
Ġbu eno
Ġdefens ores
Ġrue da
ec as
Ġven ganza
Ġpas iÃ³n
Ġmagn itud
ĠreÃºn e
ĠEliz abeth
Ġclasific Ã³
Ġu cran
ĠBen jam
Ġcu ento
Ġcomenz ado
ĠCaball ero
ĠRo ad
Ġvesti do
Ġadolesc ente
h os
cer ÃŃa
ÃŃ das
ĠFre d
ĠL lo
Ġform aba
Ġregular es
Ġll ena
Ġcil in
Ġdefin ido
Ġasoci ada
Ġf lora
Ġcer rÃ³
p rim
Ġhom Ã³nimo
ch u
Ġcab ezas
Ġaplic ar
ĠprÃ©s tamo
Ġar isto
Ġmaes tra
Ġin ac
cos a
ĠSi mp
igu al
fon os
ĠLe tras
Ġcono cÃŃa
Ġgen Ã©tica
Ġw ith
ĠMauri cio
fic ado
ĠCh ap
Ġaprob ada
Ġcer tamen
Ġincluy eron
l adas
Ġco br
Es to
Ø §
ĠL ÃŃnea
cin co
in io
om ento
Ġfu tura
Ġvigil ancia
Ġdetermin ada
tin e
Ġh ard
Ġdim ensiÃ³n
Ġcons tantes
ĠRe forma
ĠRe presen
ĠCar re
ĠSpi der
ĠS ky
Ġe ru
ĠMa teo
Ġinter net
j ados
ĠA po
po ol
Ġinter nos
ĠPar anÃ¡
ĠCo un
ĠMad onna
P as
Ġtur ÃŃstico
ĠdiseÃ± ada
Ġasisten cias
ĠWar ner
ĠGuadal upe
Ġcor rer
Ġlogr os
Ġmadri le
op ol
Ġ14 0
ĠSh er
ĠC ora
and Ã©s
Ġ189 5
Ġunivers itaria
Ġima g
Ġsegu ida
Ġdesapar eciÃ³
Ġpro bar
Ġvie ja
b era
Ġascen dencia
b aj
l iga
ĠmÃ¡ xim
Ġm ide
Ġefec tiva
Ġarch ipiÃ©lago
pti m
Ġarro yo
Ġbar ra
Ġmas iva
Ġal iado
ĠsatÃ©l ite
Ġconce jo
ten ario
Ġins u
Ġperio dos
ĠPor t
ĠVal paraÃŃso
Ġderiv ados
ĠM Ãºnich
Ġparroqui al
na val
Ġdeten idos
ĠAn th
Ġincon s
ĠMu chas
Ġreda cciÃ³n
ĠIn te
Ġdependi ente
So bre
ĠCom ics
ĠO viedo
Ġpo etas
Ġfron tal
ck s
Ġcaptur ar
uer tos
Ġra zas
Ġconserv ador
ĠPresiden cia
y entes
Ġsimul tÃ¡neamente
gr os
Ġcu mbre
t la
ĠY ugosla
ĠGer mÃ¡n
Ġvers os
us as
Ġcuen tas
Ġrefer ente
Ġloc omo
Ġproto tipo
Ġases inados
Ġevalu aciÃ³n
ĠC es
qu im
ĠH ora
Ġque br
Ġsuce de
ĠYou Tube
Ġfiel es
Ġdirig idos
Ġjug ado
ĠW eb
ĠCh Ã¡
Ġarm amento
es tado
Ġexp ulsiÃ³n
Ġneces arias
ĠAlic ante
Ġol vi
ĠArm adas
Ġde du
Ġdis puesto
ĠNew s
tÃ¡n ea
na cido
Ġpu entes
Ġpu diendo
ona to
Ġesco g
A L
Ġsig nos
Ġdiv is
Ġdeclar ada
Ġejecu tar
Ġanunci ado
inos au
Ġdeleg aciÃ³n
ĠDol ores
ĠEs per
ib a
Ġnie ve
Ġen cer
Ġcontribu ciÃ³n
d ares
ĠBib lia
ĠY uca
Ġmanifes taciÃ³n
Ġan ualmente
Ġch icas
I B
Ġidentific ado
Ġ9 5
ĠTo das
Ġdirig ente
ĠP ÃŃo
Ġcaus ando
Ġregis trÃ³
Ġperu ana
Ġr osa
ba ch
Ġten dencias
Ġdiagn Ã³stico
w orth
ĠEmper ador
ig g
ĠAl i
Ġsi quiera
Ġtesti go
qu ie
ĠH i
ĠPales tina
es cri
Ġagra de
ĠA gencia
Ġgubernam entales
un ales
ĠfÃ¡br icas
Ġaer ol
s el
Ġex hibiciÃ³n
Ġconcep ciÃ³n
Ġviv os
ĠMor ris
ĠCÃ³ digo
ĠK an
ic en
ĠBo ys
ern as
enci almente
ĠespecÃŃf ica
ĠCam pos
Ġresta urante
j ando
ĠJ on
Ġneg ras
es or
ĠBartol omÃ©
Ġtor os
Ġhay an
us iones
ĠcÃ© lula
Ġcamis eta
Ġencontr ados
Ġex pec
and y
ch an
Ġmin erales
ĠBel grano
Ġvar iaciÃ³n
Ġasegu rÃ³
cop io
ĠMin is
Ġen tero
Ġsus ten
Ġcom is
Ġsens aciÃ³n
ĠFI FA
te ur
Ġpresenta ba
Ġpresen tarse
Ġrele vancia
Ġvig ente
ĠP P
Ġtransmi tir
ĠJos ef
Ġderro tados
Ġor iente
Ġn osotros
ĠF emen
Ġ8 5
Ġefica z
Ã¡ ticamente
Ġ189 9
Ġdesarrol lan
ĠB rad
as is
Ġen mar
Ġbaj ista
tiz ada
Ġ ...
ĠL le
ĠDoug las
s tein
Ġhi p
Ġcumpl imiento
ĠB rus
Ġinter ro
ĠBan da
Ġto cando
Ġentre vis
y es
Ġle gen
Ã¡ndo los
Ġcaball eros
Ġinter nas
Ġsuminis tro
og Ã©n
ĠMa xim
guir re
ton ia
Ġarque olÃ³gicos
ĠP ur
ĠÃ©s tos
T u
era to
Ġconven cional
abell Ã³n
Ġ189 7
ĠT ener
Ġins ta
ĠMan cha
Ġqued aba
ww w
Ġin yec
ĠS pr
ĠÂ ¡
Ġdiplom Ã¡tico
Es tas
Ġsolici tud
Ġargen tinos
" Â».
ul lo
Ġgesti on
ĠMaes tro
Ġconven cer
Ġcamp us
ĠBea t
Ġne ur
Ġpan or
ab ilidades
200 1
Ġaustr ia
ĠmolÃ© culas
Ġgrab ados
i ter
C omen
Ġadecu ada
P rim
Ġdistin guir
Ġ[ ...]
Ġsus tancias
Ġreal istas
Ġtermin aron
Ġ5 4
gon al
ĠAmer ica
ĠC is
Ġunivers itarios
Ġdeten ciÃ³n
R C
Ġdos is
Ġha cienda
Ġotom ano
Ġtr amos
Ġprovis ional
Ġcapa ci
Ġman eras
Ġsue co
San ta
20 15
Ġjue ces
landes es
cil ler
Ġreco ge
Ġileg al
ti gu
Ï ģ
qu istas
Ġdi cen
Ġvelo cidades
Ġc ueva
Ġlo go
ili ados
Ġhab il
Ġe f
j illo
Ġl len
ĠCl ara
M P
Ġopin iones
Ġro taciÃ³n
Ġob reros
Ġpredomin ante
ĠSer ies
Ġg iro
B I
ĠS aj
Ġfacil idad
Ġfinanci eros
Ġsobrevi vir
200 2
Ġame trall
ĠCu p
tr icas
ĠgrÃ¡f icos
A d
ĠG ala
iemb ro
Ġemis ora
ĠGu an
Ġprote ÃŃna
ĠW o
Ġposi tivas
de lo
Ġdispu tado
Î ½
Ġ" .
Ha cia
Ġbas adas
ell er
Ġza pa
Ġcompu tadora
ĠbÃ¡s ico
Ġprof undamente
Ġencar go
Ġcon forme
Ġl una
qu erÃŃa
igu iendo
ĠCor ri
ĠAssocia tion
ĠGiovan ni
en za
ĠT i
Ġavanz ar
Ġg ras
Ġde tall
ter dam
ĠS ul
el Ã©ctr
Ġla tina
ĠJer sey
Na cido
Ġpien sa
ph er
ĠB erg
ten tr
ĠH ur
Ġmedi r
ĠAr gel
ide o
d Ã©
Ġre quieren
Ġconsider arse
Ð¾ Ð
ur ne
z ca
Ġte les
ulgar ia
i fer
tar Ã¡
Ġaf ueras
val o
Ġciudad anÃŃa
Ġresul taron
ĠB io
ĠfenÃ³men os
ĠSici lia
an go
ri k
Ġpregun tas
Ġcer rada
Ġasesina tos
Ġprodu ciendo
Ġpre curs
ri das
Ġdedi carse
ĠNi Ã±o
ta h
ĠSegun do
Ġpre fi
H ar
S P
Ġconm emora
a urus
Ġcam peones
ro ck
Ġprovo cando
3 00
Ġmostr ando
il vania
ĠAl ber
Ġempez ar
ĠP arro
Ġt Ã³
Ġsovi Ã©tica
Ġp usieron
= "
Ġpros titu
Ġelector ales
ĠCol orado
Ġmag ia
ĠPer man
ĠJ usto
Ġorien tales
Ġseg mento
Ġconserv adores
ĠMa te
Ġ15 00
Ġrestau rantes
di ta
ĠEn erg
Ġabund antes
ĠLa ura
ĠMar celo
a ch
Ġsepar adas
ĠmÃ³vil es
c tu
ĠS au
ĠG r
Ġsin tiÃ³
ĠhÃ©ro es
Ġtur istas
Ġsurg ieron
Ġcu ch
um i
ĠG ord
ĠFran Ã§
ĠTer min
ĠYuca tÃ¡n
ĠG uy
Ġloc aliza
Ġah or
u car
Ġdistin to
b ÃŃ
ĠdiseÃ± Ã³
Ġdefens or
Ġcon dena
Ġ189 6
ĠConstitu cional
n aciÃ³n
Ġdirec tiva
Ġredu jo
To dos
Ġa viaciÃ³n
b Ã³l
im ar
Ġavanz ada
en ia
Ġexp licaciÃ³n
ĠMed alla
Ġinteg rante
Ġr icos
ĠEstu diÃ³
Ġcol ina
ios os
ib o
Ġespeci alizada
se x
Ġvo cales
ĠMall orca
c ana
Ġacep tado
Ġimpro vis
Ġocup ando
Ġfa cultad
Ġproyec ciÃ³n
ĠPr in
ĠV Ã©
des de
Ġocta vo
a f
Ġmun diales
Ġveg etales
ĠPam plona
Ġre m
Ġpermi tieron
Ġadministra tivo
Ġre mi
ĠAr n
Ġo ptim
Ġraz on
Ġentr aron
Ġa ero
Ġhum edad
ĠRa w
Ġextre ma
Ġacus aciones
Ġeduca tivo
Ġla guna
Ġpreten de
ĠNet work
ca p
ac tual
Ġb Ãºl
Ġhom Ã³nima
ĠEx posiciÃ³n
Ġoper ar
tien da
Ġproce dimientos
Ġor al
Ġpar ques
it re
b ados
ĠB all
Ġleg ÃŃti
ĠElector al
ĠAudi encia
Ġanun cia
ĠMe tal
Ġpor tal
Ġb ÃŃ
Ġpro hibiciÃ³n
ĠVic e
Ġmanten ÃŃa
ĠOb s
Ġau tos
Ġincl usiÃ³n
ĠRos e
I V
Î ¹
ĠSteph en
ĠO NU
Ġcor t
ĠPr usia
ĠEm il
Ġf os
Ġguer rill
Ġcomunic ado
Ġinten so
B ri
Ġpais ajes
ĠM iller
ĠP ir
ce te
ac Ã¡n
Ġtermin ando
Ġanfi tr
ion Ã³
Ġcalific Ã³
on das
ĠCo op
F e
Ġad mir
Ġrectang ular
Ġorden ado
Ġameric ana
l ine
ĠK er
ĠLuis a
Ã ª
ĠfÃŃs icas
ĠC F
dr omo
Ġescri biendo
ud Ã³nimo
ĠB las
con es
ĠHer mandad
Ġfabric ante
Ġrevolucion ario
Ġb eca
cu er
Ġcivil izaciÃ³n
Ġexpres idente
te mpor
Ġubic ados
Ġpens Ã³
Ġdestin ada
quier da
ĠSha k
ĠR amos
Ġoblig ados
Ġdispar o
ĠF rie
Ġvuel ven
ĠK on
Ġun ir
ch ura
lo t
Ġsub terrÃ¡n
Ġlu chas
Ġform aban
Ġbus caba
que tes
ĠL Ã©
Ġsufici entes
ĠLa go
Ġurb anos
ĠTen ÃŃa
p to
ĠM adre
Ġarm adas
ĠL iv
Ġrepe ti
ĠF ac
ĠsÃ¡ bado
U C
e ira
Ġdeci dir
ĠT os
ĠF A
Ġnie ga
pon e
ĠMa gn
ion e
Ġinten taron
Ġmexic anos
ar en
Ġcon ces
aliz aciones
Ġmon jes
Ġconf i
w ig
Ġfra c
ĠdÃ© cimo
O N
ĠPro yecto
Ġ188 8
Ġhab lan
Ġal mirante
Ġexten der
ĠTh om
p il
Ġde pendencia
Ġac lar
Ġc lan
b in
ĠAn derson
Ġtu bo
tar lo
Ġlad rillo
Ã¡ ra
Ġsol ÃŃa
Ġafirm ando
j idad
Ġal quil
Ġ5 6
Ġti ros
Ġhorm ig
ĠMassa chusetts
ĠM anz
Ġaterriz aje
ĠIn c
ĠFil m
un daciÃ³n
b ina
z y
ĠB ulgaria
Ġpatr io
ĠB Ã¡r
Ġmedi as
Ġ188 9
Ġos ten
Ġingen ieros
ens is
Ġv am
itar iamente
Ġdom ici
Ġma trimon
Ġrecu erdo
ĠS ys
ĠAp ple
Ġad yac
Ġic ono
Ġdes pl
me d
ĠseÃ± ores
cal a
c ÃŃas
Ġautor a
Ġayud ante
s is
og le
Ġrecor dar
ĠL ab
Ġcondu cciÃ³n
Ġp si
ĠF le
Ġregular mente
Ġre en
Ġdestin ados
or s
Ġnom inado
Ġprodu cidos
Ġnotable mente
ĠS eg
tor iales
tal ia
Ġcam ar
Ġban car
fas is
ĠChÃ¡ vez
ĠClaus ura
en ciales
Ġcorre o
Ġdistin ta
Ġtras era
per as
in to
Ġ11 0
ĠMonter rey
ĠCorpor ation
v Ã³
Ġproven iente
Ġfel iz
Ġre pos
y an
Ġd ona
ĠHo ward
aya quil
Ġhidr Ã³geno
Ġl ien
Ġllam an
ti bles
20 14
Ġan s
ril los
Ġ Ã©n
Ġtr igo
Ġrestric ciones
Ġeven tualmente
Ġcen tÃŃ
Ġredu ce
gra m
Ġmus ic
ĠintÃ©rpre te
Ġobs tÃ¡
Ġcr Ã¡neo
Ġencar ga
Ġriv alidad
Ġbici cle
qu eros
Par ti
ĠL ang
ĠY an
ĠcÃ¡l culo
Ġ5 7
Ġcolabor adores
ĠTemp lo
Ġr ub
ec to
ĠIn icialmente
Ġasum e
ĠJohn ny
Ġsignifica tivamente
Ġromp iÃ³
ĠEstudi antes
g h
Ġad judi
Ġdispar os
Ġameric anos
Ġb its
b ell
Ġes por
Ġsel va
Ġhorizon tal
Ġ189 1
Ġline al
Ġme tales
Ġciudad ano
ĠOx ford
ĠOr le
Ġgas es
Ġexplic Ã³
Ġinvi tada
la v
Ġhol an
ĠO pen
ĠCh e
Ġsitu ados
Ġb y
Ġac lam
Ġprepar ar
ĠJim my
Ġb ille
Ġca ci
Ġemi tir
ar l
Ġigu ales
Ġaten tado
ĠTener ife
Ġvide os
Ġelec to
u dos
Ġcoop era
Ġconse jero
Ġdestru ida
ĠChris to
ĠB ang
Ġcens ura
par ti
Ġhor ario
Ġtr Ã¡ns
ĠPue de
Ġascendi Ã³
Ġterres tres
Ġgratu ita
ĠRo ca
ĠI vÃ¡n
ĠMÃ© rida
enn y
M or
Ġmar x
Ġmus eos
Ġfund ar
Ġrepublic anos
Ġas ientos
g ers
Ġdi eta
Ġmencion ada
ea th
Ġindi car
ĠUR SS
all en
Ġatrac tivo
ol eta
Ġderro tas
B e
Ġs ombra
Ġmin isterio
Ġre h
ĠS qu
Ġin e
Ġmar rÃ³n
ĠTor onto
Ġp ad
ĠS as
Ġcon v
Ġtra to
ĠespecÃŃf icas
ĠIs idro
Ġcar l
Ġtrabaj an
c encia
Ġplan ificaciÃ³n
ĠComen zÃ³
Ġd orm
Ġpol ar
d ario
ĠP ino
dil lo
ĠIndustr ial
ĠCalder Ã³n
Ġra m
Ġllev aban
Ġap las
ĠÃ©n fasis
Ġsorp ren
di tos
Ġdis puso
Ġcon tes
Ġma tÃ³
s tr
ĠestÃ¡n dares
u fac
Ġ186 8
Ġge omÃ©
ĠCro a
Ci udad
ĠB omb
ĠCom ple
Ġfran cis
ĠU SA
ter no
ran g
Ġmeridi onal
Ġin oc
ĠGuin ea
P ol
di f
ĠLe v
Ġlu ces
ĠKe vin
Ġsignific Ã³
Ġpian ista
ien ses
Ġle ma
Ġsug iriÃ³
Ġdeci dido
Ġforma ciones
Ġelectr ones
ĠC ic
Ġ5 3
Ġportugu eses
Ġun en
ĠSo und
Ġva g
te z
ies ta
Ġdesarroll ando
Ġdetal le
Ġsenti miento
d Ã©s
ĠS ÃŃ
Ġdiv ul
A b
Ġpas eo
Ġro j
Ġcri ol
ĠNel son
us ton
Ġcal en
Ġinflu enci
h ue
ĠT on
Ġsal ieron
Ġb er
Ġespec tro
p pe
Ġobserva ciones
Ġexam en
ĠcÃ³m ics
Ġcir ugÃŃa
Ġconfirm ado
Ġis lam
Ã¡r ma
Ġgole ador
Ġf este
Ġmedal las
ter ial
ĠBar rio
Ġsupervi vencia
ĠP ho
ĠCon ce
ĠRus s
Ġcontac tos
Ġsil encio
G e
Ġdin Ã¡mica
ĠU ri
E D
ĠK id
ĠHe in
Ġgan adora
isco pal
eron a
ĠSimp son
ĠOr tega
ĠFu ente
ĠRy an
Ġlig ero
Ġbizan tino
Ġmanifies to
ĠTur ismo
ĠE ast
ĠS om
ur ado
Ġsocial istas
ĠMe tropolitana
Ġmur alla
Ġper sa
Ġimple mentaciÃ³n
m undo
Ġdepor tivas
ĠJuven tud
in ch
Ġcontribu ciones
Ġrecep tor
cier to
ĠCab e
ĠClar k
ĠB and
Ġtrop icales
ĠSe de
Ġcuer da
are la
ti e
Ġcons igo
je d
ĠMor gan
ĠseÃ±al ar
ĠS emin
Ġmar cada
Ġmin eral
Ġtr Ã¡
ien tal
du lo
ĠBar ran
Ġexpor taciÃ³n
Ġentreten imiento
Ġlider ado
Ġcolon izaciÃ³n
re ctor
ĠCam ino
gan istÃ¡n
Ġviol aciÃ³n
ion ista
ĠCab rera
es ter
ĠAl var
199 9
Ġcre er
Ġquer ÃŃan
Ġcre cer
Ġli tros
Ġcele bran
ĠCon tr
for o
ci encia
Ġdestac adas
Ġcrim inal
Ġf en
ay e
Ġag ro
os amente
Ġemb arca
ĠAlcal Ã¡
Ġextra cciÃ³n
Ġprecip itaciones
Ġdesembo c
tin es
ĠD ick
ve y
Ġauto buses
Ġbombar deo
Ġdescono ce
pol i
Ġmostr ado
Ġexca vaciones
I P
Ġdep Ã³sito
Ġinstru cciÃ³n
ur ÃŃa
ĠGo od
r arse
Ġsir ven
ĠG ue
Ġcr ÃŃa
m ia
ĠA quÃŃ
ĠSo fÃŃa
aliz an
ĠHab ÃŃa
ans as
bier to
ĠcientÃŃf icas
Ñ Ĥ
Ġa ver
Ġbloque o
ti era
Ġg imnas
Ġpas aba
Ġrelev antes
ĠtÃºn el
Ġven ÃŃa
Ġdu das
ĠTru jillo
di ces
qu ismo
J a
ec erÃŃa
Ġadop tado
ĠaÃ±ad ir
Ġplan tilla
Ġch ico
ĠCor tÃ©s
ĠV arios
Ġconf ron
Ġp Ã³s
g us
tin amente
ci f
ĠF M
Ġpsic ologÃŃa
Ġdo bles
Ġreun ieron
Ġa du
Ġmater ias
Ġalum no
Ġexpuls ado
Ġ18 50
Ġver te
Ġnecesita ba
Ġ um
ĠB uda
Ġman dÃ³
Ġpa tas
Ġcubier tas
Ġdrama tur
go via
B M
E ra
Ġmodi ficaciÃ³n
Ġdesplaz amiento
Ġmo des
Ġtom an
Ġdesen ca
Ġjun tas
Ġamena zas
Ġdes pa
tropolit ano
es to
ĠR as
Ġcar tel
ĠCar ol
Ġm ila
Ġren acen
Ġextran jeras
Ġescal era
Ġtesti gos
Ġvia ja
Ġconquis tar
Ġdiecis Ã©is
M arÃŃa
br os
ĠEl los
ĠÃģ vila
Ġd inosau
Ġmedi ano
Ġcal cul
Ġra cional
Ġalo j
al i
ÃŃ amos
ĠAn to
ĠGo d
ones ia
ĠNÃº Ã±ez
la ck
Ġmar inos
Ġtur cos
Ġinmig raciÃ³n
ĠB ry
Ġus aba
ĠNav arro
tis h
Ġsub si
Ã¡m icas
ĠP unta
Ġmis a
s burgo
vi ra
ĠMar sh
ĠMo ore
ĠDre am
Ġloc alizaciÃ³n
Ã³n imos
Ġsu po
ĠCons erv
ĠÃ©s tas
op h
Ġdes com
Ġcontam inaciÃ³n
ti ente
ĠGu ardi
Ġinterpre taciones
Ġinvolu c
Ġmito logÃŃa
ĠF iscal
Ġbus cÃ³
Ġpul gadas
Ġfil o
Ġperiodis mo
Ġad orn
Ġart ÃŃsticas
m adura
vers iÃ³n
ĠBat man
ĠValenci ana
Ġinmedia ta
Ã± ada
Ġne um
Ġoscu ra
Ġtom ada
ĠAl f
ĠKenn edy
Ġm ira
ĠMar cel
Ġconvers aciones
nes s
Ġconec ta
ĠParti cipÃ³
Ġfinan ciaciÃ³n
Ġinspir Ã³
Ġce dido
Ġcompr ensiÃ³n
Ġlu jo
ĠRio ja
Ġcon tener
Ġgan adores
w o
Ġhab ido
ĠFran cesa
Ġfran ja
ig i
Ġcu rios
gra mas
ĠF ila
Ġalber gar
Ġinter s
n ec
Ġen vÃŃa
Ġcor tas
b Ãºs
Ġser ia
ĠP SOE
Ġfund aron
Ġcomple ja
Ġgr Ã¡fico
Ġcorrespon dencia
ĠDich a
Ġ189 3
Ġb ala
Ġinm un
ĠDich o
Ġnaz is
ĠEdi torial
Ġglo b
ĠAf ganistÃ¡n
ĠCh ur
Ġtur co
ĠT iempo
Ġutiliz aba
ĠÃ©l ite
Ġacon se
Ġba tallÃ³n
Ġch ar
ĠpÃ¡ jar
Ġpla yas
ĠSoci ales
te pec
ĠV izca
Ġ188 5
Ġsil ves
Ġllan ura
Ġn Âº
Ġtu viera
Ġneces itan
ĠEr n
Ġdomin ios
p ada
Ġsig no
Ġ189 2
Ġexclus iva
H ab
j Ã³n
Ġ18 30
en tas
ĠâĢľ "
Ġsen tir
Ġcompar te
Ġatravi esa
Ġestrech amente
ĠG ian
ĠIn di
ĠCar rera
Ġobten idos
Ġin j
pu lo
ĠtrÃ¡ns ito
ich i
Ġdirec ciones
Ġmu Ã±
es co
ĠJac ques
ĠjurÃŃ dica
Ġma quin
Ġprision ero
Ġas igna
ĠT ech
ili ares
Ġacord Ã³
s or
Ġrespec tivos
l lam
Ġe ros
Ġhab itaciones
Ġcontra tos
ĠMar ta
Ġcab ello
Ġampl iar
Ġhem bra
ĠYugosla via
ĠSo to
Ġsan ta
Ġpon iendo
Ġadolesc entes
ĠJul iÃ¡n
Ġrecol ec
ho use
Ġan chura
ĠSh in
g am
ĠCom andante
ion ar
Ġpolici al
ĠGal erÃŃa
Ġredu cida
Ġfich Ã³
ĠLu z
Ġh imno
ĠE va
ĠHer e
pres iden
ron to
Ġtr iste
Ġauto bio
Ġapo do
ĠPu bl
ĠGu ayaquil
ĠBu ena
h in
Ġnoven ta
Ġrenunci ar
Ġdi osa
Ġcer rar
tab ria
Ġcorre c
Ġd r
Ġno ches
fic e
ĠLeon ardo
ĠHol anda
ĠÃºn icas
ĠacompaÃ± ada
Ġconcre tamente
Ġarres tado
ho u
Ġdedi cados
Ġcompon en
ca o
Ġperson almente
Ġconstru idas
Ġmil itantes
ĠGol fo
Ġtarje ta
n is
Ġr ara
as ia
Ġaumen tando
ĠbÃ¡s icamente
ĠAmeric ana
Ġfi ja
rad i
Ġda tan
Ġpropa ganda
Ġpopular mente
Ġesta bil
Ġ188 4
ĠB ad
Ġpla tos
Ġconj unta
lova quia
Ġejecu tado
Ġp acto
Ã©l ico
an ca
Ġper on
Ġpoder osa
ĠVel asco
gen er
ĠK am
Ġdefendi Ã³
Ġocasion almente
k el
Ġventa jas
Ġcompren der
Ġhalla ba
ci ana
Ġcomun ica
ĠJer Ã³nimo
Ġcorte za
re f
Ġor aciÃ³n
Ġde ter
Ġconsider adas
W e
ĠAndre w
ĠCroa cia
Ġcaus ado
bo y
Ġrum ores
Ġen rique
Ġg usta
gr ados
iz aron
Ġpendi ente
d ÃŃas
k ers
Ġl ento
Ġcan cha
Ġinstitu cional
amil ton
Ġ6 8
ĠV Ã¡zquez
p io
Ġtra ge
ine bra
Ġespeci alizado
fa z
Ġcr omos
Ã³g icos
Ġescas ez
mb urgo
Ġconserv ado
as en
ĠO ut
Ġtrans par
iw Ã¡n
Ġescas os
ĠSig lo
g adores
j ÃŃa
Ġh uracÃ¡n
lo ven
Ġdenun cia
Ġclasific ar
mu laciÃ³n
po p
z ano
Ġpublic adas
F a
Ġ7 2
xa ca
Ġre di
0 5
Ã± al
Ġcomple jidad
Ġ187 1
Ġsus tancia
Ġconf e
Ġya cimiento
ĠprÃ³xim os
Ġdeber ÃŃan
ĠCh ia
F L
199 8
Ġatra cciÃ³n
Ġrepresenta ba
Ġtriun f
Ġperio d
ĠDipu taciÃ³n
ĠBritÃ¡n ica
Ġdesemboc adura
Ã¡ ez
Ġcon lle
ill y
Ġviol enta
Ġre ba
pa ta
Ġsepar ada
ĠCol l
e de
Ġintrodu cido
Ġclasific ados
ia t
Ġpose er
Ġdel ic
Ġatra er
Ġe co
ĠLa ur
Ġgradu almente
vin as
Ġmural las
Ġcambi ando
ĠTh or
G A
Ġselec cion
Ġbo de
Ġinm ue
ĠT in
Ġreun irse
Ġprote ctor
fici encia
Ġen cla
ĠA BC
Ġafec ta
Ġ184 0
Ġp eg
Ġexten so
Ġexpres iones
Ġcon curs
Ġsu deste
ĠD io
ton io
Ġconstitu ido
Ġafec tados
Mu chos
% ),
mb res
Ġcom ando
Ġ3 000
Ġembaj ada
Ġmar ino
dal e
ĠPo wer
D S
ad illa
Ġmag istr
ĠT la
Ġper for
o f
Â ·
gen to
Ġrealiz aba
Ġ188 6
z adas
irÃ¡ mi
Ġregu laciÃ³n
ĠGord on
or te
ĠA gua
ĠM ana
Ġdesign aciÃ³n
re inato
ĠsÃŃn drome
Ġvir tual
Ġ187 9
Ġjuven iles
igh ts
ĠAndr Ã©
ĠUnivers o
Ġcompar ten
ĠOrle ans
ific Ã³
Ġconvo cÃ³
Ġtrip le
ue z
Ġlec tores
Ġdes l
Ġguer reros
Ġve ÃŃa
ĠL ady
Ġtor pe
Ġ188 1
Ġluch ando
ĠcatÃ¡ logo
c ente
ĠRo dolfo
ĠFrie drich
ĠA vi
Ġj ura
Ġvolver ÃŃa
ur ar
Ġsin dical
Ġleal tad
k an
Ġreor ganiz
o do
ĠBo e
ĠAlfre d
Ġrad icales
Ġsuf rieron
ĠAr que
Ġsep tentr
Ġpol vo
Ġatac aron
col n
ĠRos as
Ġtransform Ã³
ĠÂł ĠÂł
ĠV ers
ven ta
ck y
Ġdivi diÃ³
Ġex ce
Ġ184 8
Ġacce de
Ġp ilares
Ġorden a
al lo
Ġgeo grafÃŃa
Ġfun er
Ġinstal ado
s ig
ĠOb ispo
Ġd ama
Un ivers
Ġt Ã©
Ġsecre ta
Ġer rÃ³n
Ġatac ado
ĠescÃ¡ndal o
ced onia
Ġ18 10
Ġsu ministr
Ġin esper
ĠacompaÃ± Ã³
Ġin mo
Ġbater ista
Ġtra tan
Ġmayor itariamente
Ġfirm aron
ĠFa ce
Ġalcanz aron
Ġrespal do
Ġviv a
ĠB ros
Ġcontra tÃ³
ĠH as
Ġextra Ã±o
O tras
f ri
Ġcor al
Ġimpi diÃ³
Â» ),
Ġgrab ada
a tos
cul tura
as tas
ĠJ ud
Ġcirc un
ĠAngel es
Ġuruguay o
ĠO cta
ĠdiseÃ± ador
Ã¶ n
Ġnucle ares
Ġintelig ente
Ġagr icul
o va
v ÃŃan
Ġinfec ciÃ³n
Ġal deas
Ġcons enso
Ġentre gado
Ġin dio
Ġagreg Ã³
p ie
v ara
ĠseÃ±or ÃŃo
tar ric
Ġconf usiÃ³n
Ġcr Ã³nica
Ġalterna tivo
al do
bor o
Ġmercan cÃŃas
Ġbas Ã¡ndose
Ġargu mentos
Ġpar ada
la va
Ġar men
Ġman ual
Ġdesas tre
ĠTw itter
ĠDo wn
Ġrecor d
Ġde vas
M y
Ġvol ar
Ġcasti go
ich o
Ġ18 12
Ġmanus crito
Ġpo tente
Ġderi vado
Ġend Ã©m
Ġcorre dor
Ä «
Ġval iÃ³
Ġpecul iar
Ġfavor ables
Ġtr ÃŃo
ĠSal ta
Ġfru tas
Ġgubernam ental
ĠNeg ra
ĠCh ip
Ġ5 8
Al l
Ġinvers iones
N ueva
Ġpres os
ĠfÃŃs icos
a der
Â ³
Ġh ÃŃ
Ġdetermin Ã³
Ġes encialmente
Ġcam pan
Ġefici encia
Ġas im
ier ta
Ġsan tos
Ġelectr Ã³nicos
Ġcoord inaciÃ³n
el amente
Ã³g icas
Ġneces ariamente
Ġconsidera ciÃ³n
Ġre pen
Ġofici o
M Ã©
Ġt in
Ġrefuer zos
ĠseÃ± ora
Ġinaugu rada
on ada
Ġafec tado
ĠR ap
Ã©r icos
Ġfin ca
Ġexpec ta
Ġcre ados
ĠBea ch
Ġlevan tar
Ġdescar ga
Ġtabl as
ĠP ilar
ĠCar ter
Ġcal iente
ĠRec on
Ġre ten
Ġactiv ista
Ġsuje tos
L ib
Ï Ħ
Ġc res
c ron
s ie
Ġa ba
ĠquÃŃm icos
Ġbeb Ã©
ĠP uerta
Ġbel ga
cip es
V en
Ġto ca
Ġconf es
ĠAb d
Ġportugu esa
ĠRo d
th ers
Ġejemp lar
re za
ver de
Ġexten dido
Ġrela ta
O C
Ġsome ter
Ġcoin ciden
F E
ĠC ri
Ġin unda
ĠO la
Ġcul pa
Ġresul tando
ĠAh ora
P r
Ġtor tu
ĠNa cionales
Ġaband ona
Ġmostr aron
Ġ187 6
Ġpos esiones
Ġ188 7
Ġhabitu ales
Ġlenta mente
Ġelabor ado
ul d
ĠelÃ©ctr icos
Ġlevan tÃ³
Ġaf ron
Ġch icos
ĠFon do
jed rez
he ad
Ġrelev ante
á ĥ
ĠC enso
ck ey
Ġsitu adas
Ġliber ar
on t
Ġpri va
Ġsug ieren
Ġrecuer dos
ĠGram my
ĠPeters burgo
ĠA ran
Ġ6 6
ĠcÃ³m ic
I M
uel tas
Ġlog ran
Am eric
Ġmanus critos
Ġm ina
olu ciones
c ena
Ġcar n
Ġtribu to
ĠÃ¡r bi
Ġconex iones
ĠAm ar
Ġ189 4
Ġsemif inal
Ġan dalu
Ġrespon der
ĠBroad way
ĠCor uÃ±a
ĠAth le
Ġamistos o
Ġcolombi ana
Ġautomo vil
ĠH om
ĠBan k
or ia
ĠSemin ario
Me jor
Ho y
Ġm uel
Ġdes pre
ĠBill y
ĠCap illa
ĠLi teratura
sen al
Ġperfec tamente
bu lo
ĠAmb as
ell s
Ġdi gn
Ġsuper ando
Ġespec ta
0 8
ĠB et
Ã ²
ru gada
Ġsal va
Ġ7 6
Ġtal entos
ĠPremi er
H ijo
Ã¡ Ã±ez
ĠBa tallÃ³n
Ġadop tar
ĠIg lesias
u tiliz
Ġcilin dros
ĠparÃ¡ metros
Ġconsidera ban
Ġparroqui as
Ġaf irman
Ġtan que
ĠPak istÃ¡n
dad ores
Ġdenomin ados
Ġcoleg ios
ĠL ie
ma ck
ĠFer ia
Ġpes ado
ĠV egas
Ġprovin ciales
Ġconj untamente
ĠAnth ony
ĠPÃºbl ico
E se
Ġd Ã¡ndole
ĠJos ep
Ġpresen tando
Ġdes er
ir os
Ġman ip
ĠA ce
t oma
ĠCal i
B ajo
ĠChar lie
tom ÃŃa
ĠclÃŃn ica
ĠPos t
Ġprim arias
Ġbacter ias
Ġor bi
Ġanim ada
Ġcar as
ĠFor t
Ġin ca
ro p
Ġd uelo
mon t
Ã©s ped
Ġtumb as
ĠA riz
Ġabier tos
ĠOl iver
Ġtarje tas
ba co
b ajo
Ġt asas
Ġcomb inado
ĠcÃ¡ tedra
ĠS talin
ĠU C
ill ones
Ġper f
ĠBritÃ¡n ico
la h
ĠBrus elas
ĠC P
ĠF ol
Ã¼ n
Ġsustitu ir
ĠExtre madura
N G
Ġac omo
ĠIn ten
Ġtu ber
Ġar ca
Ġcere bral
ĠarquitectÃ³n ico
ĠRena cimiento
Ġab uela
ĠTa iwÃ¡n
Ġfol k
ĠV ida
ril las
Ġfilos Ã³f
Ġsub ur
T or
Ġsen tÃŃa
Ġpun k
Ġir se
ĠRes erva
ĠL P
ĠD E
Ġedi tÃ³
qui as
Ġtien den
Ġpatr ia
che vi
ĠS cien
D an
Ġsan gu
ĠBra vo
Ġh ÃŃb
Ġpor ciÃ³n
ĠT em
Ġampl iÃ³
Ġem erg
Ġiden tifica
ĠDepor tiva
Ġvie jos
l Ã³n
ĠA guirre
Ġ186 5
Ġsuper Ã³
ĠtÃŃp icos
J unto
rag ones
g le
ĠDig ital
M L
Ġac cidental
ĠM aj
Ġmonta je
Ġlleg arÃŃa
ĠGu ar
Ġdenomin Ã³
O n
z ando
Ġper cepciÃ³n
ĠâĢ ķ
ter ia
tan ia
ĠCas as
tiz Ã³
Ġmostr aba
ĠestratÃ©g ica
ĠPic tures
E E
tic s
Ġabad ÃŃa
s oci
ĠOb ras
Ġproces amiento
Ġmoto ci
Ġna cida
Ġfal lo
ĠG un
ĠChampion ship
ol ÃŃtico
ĠK elly
di Ã©ndose
vi de
Ġcre ce
Ġprop iamente
Ġrit mos
Do wn
erba iy
ĠI S
âĢ ķ
Ġlig era
del fia
Ġconform ada
D C
Ġman i
ĠSaj onia
ĠN er
Ġca Ã±a
ĠVÃ© lez
ĠA S
ĠN in
ĠDar k
Ġf uga
ĠS port
Ġad quiere
tro it
ĠDem Ã³crata
D I
ur nal
Ġgol pes
Ã©s imo
Ġfr ustr
ion almente
ff y
Ġcontro ver
Ġpen ales
ĠM ix
ĠWh it
Ġi ran
ĠAnd rea
Ġtrib unales
k ÃŃn
gar os
ĠGo ogle
Ġgrave mente
ĠC A
Ġautor izaciÃ³n
Ġconside rando
Ġmod alidad
Ġf ri
ĠP iz
Ġconsigu iente
pres s
Ġaprovech ando
N C
ip Ãº
ĠHar vard
ĠcÃŃr culos
Ġ ;
Ġtri Ã¡n
Ġviaj eros
Ġmantener se
Ġaeron aves
ĠFan tas
Ġesclavi tud
Ġmemb rana
ĠUnivers itaria
B O
Ġf Ã¡rma
Ġsuminis tros
Ġtras cen
Ġconcej ales
H z
uniden se
ĠOa xaca
Ġpla tino
Ġmemor ias
Ġ182 1
Ġapre ciar
Ġdescendi ente
ĠProfes ional
Ġ" âĢľ
ĠAr menia
Ġla gos
Ġexperim ento
. Â»
ti erro
Ġmu tu
Car los
Ġcin tur
Ġdibu j
Ġmon tes
Ġg ato
Ġadul to
m ado
ĠMon ta
w ich
qu illo
Ġte ologÃŃa
ry s
R ev
Ġv ib
Ġcan tando
Ð º
Ġpa quete
ĠCam peÃ³n
Ġhosp itales
cios a
Ġnacional ista
g ulos
l us
ĠZ h
Ġquiz Ã¡
Ġde cenas
Ġg or
Ġten gan
Ġbio grafÃŃa
ul Ã³
Ġconvoca toria
Ġmig raciÃ³n
Ġaca demia
jug ador
ĠP is
ĠM r
ĠG len
i Ã±o
ul ia
Ġ18 20
Ġu tilidad
c ton
ĠE bro
ĠJ ay
ve za
Ġcer tificado
ĠH ombre
ĠCorri entes
Ġefec tivos
Ġdefens as
Ġbrasile Ã±a
Ġsencil la
Ġencom en
Ġtelevis iva
Ġya cimientos
Ġvendi dos
? "
re e
Ġcolabor ar
ĠCons ervatorio
Ġacus Ã³
it ana
Ġjorn adas
h ad
Ġcar gas
Ġsu ple
Ġestr ib
Ġing re
Ġestrateg ias
Ã©n dum
ĠSe x
Ġinf ante
Ġconsecu tivos
R eci
Ġp se
Ġneo cl
Ġdirig idas
R os
ge la
ĠF ul
Ġad s
Ġde pre
ten tes
Ġdo bl
ĠA las
k as
Ġgol fo
Ġespecial istas
ta ca
Ġse cuencias
ĠL ittle
ĠLin coln
ĠFamil ia
Ġbienes tar
Ġsubcam peÃ³n
Ġries gos
T en
Ġproteg ido
Ġhos til
Ġimp rim
Ġma pas
ĠH omer
ĠHar t
Ġnom inaciÃ³n
Ġpolic ÃŃas
Ġdef ien
Ġ186 1
ĠSan cho
Ġresca tar
ĠD ado
ĠÂ °
vo caciÃ³n
Ġma cho
Ġen de
Ġestable cimientos
ĠBa viera
Ġdesarroll ados
Ġna tur
Fran cis
Ġnombr ar
ĠLeopol do
Ġcas ada
er ia
Ġse ver
Ġempres arios
0 9
ĠbÃŃ bl
Ġfuncion ario
Ġapo ya
ĠCam bridge
Ġtrip ul
Ġtras lada
Ġ9 8
Ġsegu imiento
Ġesper ando
Ġasegu ra
ĠHen ri
Ġ6 2
Ġdispar ar
ĠBor bÃ³n
ĠG inebra
199 7
Ġcons ola
199 5
ĠCÃ¡ ceres
Ġe jes
ĠD J
ĠBo ok
ĠTor o
ĠCon te
0 6
Ġpre val
Ġd arÃŃa
ĠEug enio
ĠRo que
cis iÃ³n
Ġconserv ar
ĠMe ta
ĠLib eraciÃ³n
Ġmin orÃŃa
rim ientos
ĠJul ia
Ġestatu as
diÃ³ cesis
gaz ine
ion s
P u
Ġo puesto
ĠJ ona
ĠProfes or
4 00
ĠH ierro
ĠAtlan ta
Ġdeber Ã¡
0 1
Ġf ug
Ġllev ados
Ġfabric antes
Ġl un
ĠS id
Ġrecha zado
Ġb Ã©isbol
Ġep ÃŃ
Ġ187 8
V er
Ġtra er
Ġindependi entemente
ĠMus e
M er
Ġsal en
Ġrese Ã±as
p y
Ġ186 9
S te
ver y
Ġtan go
Ġlleg aba
Ġexis tiÃ³
ĠArquitec tura
ĠAnd y
Ġdeter mina
ĠIn formaciÃ³n
Ġgru eso
Ġley endas
Ġdesign Ã³
Ġmencion ados
Ġemi tida
incl uyendo
Ġme todo
ĠCon trol
Ġal turas
d uras
c anos
Ġpreven ir
ĠJard ÃŃn
Ġsu ya
ĠA ga
ĠsÃ³l ido
Ġham bre
ĠNo va
ĠvÃ¡l v
Ġmon itor
Ã± Ã³
Ġve cina
Ġfer ia
Ġ tos
lo v
ul es
ĠDe ad
Ġinunda ciones
c Ã©
us se
Ġcons istente
Ġdes eos
i adas
Ġjesu itas
ĠB ase
Ġexpres ar
Ġdes igual
omb ras
Ġ188 2
ĠDemocr Ã¡tico
ĠMu riÃ³
ĠC ub
ĠOl d
Ġfacul tades
Ġder rum
Ġop uso
bili ario
h Ã©ro
Ġre edi
Ġib n
Ġculp able
ch et
Ġmad rugada
to grafÃŃa
ĠcÃ³n sul
Ġreco ger
c tivo
ti ficaciones
Ġelev aciÃ³n
fel d
Ġrode ada
lar se
ĠbÃ¡s icas
Ġger ente
Ġincapa z
Ġva caciones
Ġcomen tar
ĠV ÃŃa
vir us
Ġocur rir
Ġmin or
ĠT oma
ge lo
Ġlicencia tura
i pos
in aron
Ġbrig ada
20 16
tom os
Ġ186 4
Ġtranspor tar
Ġnega tivo
ĠF lo
l icas
ĠM ik
ĠvÃŃ deos
g ri
americ anas
Ġce diÃ³
Ġalterna tivas
Ġex hibi
Ġus adas
Ġagr ad
Ġsuper ado
Ġcontrad ic
Ġcon tienda
Ġacep tada
ci clo
Ġma tan
ĠCon tra
Ġ186 7
Ġimpuls Ã³
Ġcom ision
Ġfutur os
ÃŃn eas
Ġ187 3
d ing
Ġcl ero
Ġevi dencias
Ġsum Ã³
ĠJas on
Ġvar ÃŃan
Ġloc alizada
Ġestan dar
Ġon das
Ġaprendi Ã³
Ġmedicam entos
Ġ188 3
To do
ĠH ugh
Ġdi ag
ĠbotÃ¡n ico
ĠcentÃŃ metros
cul ada
ĠInd onesia
ĠMar te
Ġru ido
Ġ187 2
Ġb iÃ³
Ġurban as
Ġcons ciente
Ġins ul
ĠVizca ya
Ġais lamiento
Ġen ormes
du re
Ġnaran ja
ĠG alle
ie zan
Ġinstr umental
drÃ¡ ul
Ġpob la
Ġ186 3
ga pur
Ġgan ancias
Ġmencion Ã³
lan ca
Ġaeron ave
Ġcondu cido
Ġselec ciones
ri Ã³n
ĠW el
Ġnarra tiva
Ġplu ma
ĠK or
Ġpion ero
ÃŃ ble
Ġmanz ana
ion istas
Ġalgo dÃ³n
Ġcu bano
Ġnacional istas
ilan dia
Ġrecopi la
Ġdesenca den
ĠCien tÃŃf
u ana
Ġve cin
Ġhues o
ĠJohan n
Ġante pas
ĠsÃ©pti ma
ĠA bu
Ġdirig ÃŃa
ce la
ĠK ur
Ġcritic Ã³
F alleciÃ³
Ġcomb ina
Ġba Ã±o
Ġpl Ã¡stico
Ġcolo ca
Ġcompi tiÃ³
ĠMon asterio
ĠJa Ã©n
lin es
Ġconsecu tivas
j ec
Ġpens aba
P ue
Ġcaptur ados
V A
Ġres puestas
ĠPar ker
Ġjug ue
Ġviol ÃŃn
ĠM ala
ĠCe cil
Ġpla to
ĠDu ran
Ġcritic ado
Ġcual idades
min ente
n ik
Ġaconte cimiento
ci tos
ĠB ona
Ġconsul ta
Ġaux iliar
T ri
Ġdis capa
] ,
ifica ciones
ĠSara h
ĠAr ena
Ġpl umas
Ġdiscipl inas
T om
Ã© lica
Ġbater ÃŃas
en timiento
ĠPor to
]] .
Ġdiag nos
bier an
Ġdes ea
Ġperfec to
Ġmusul mana
Ġdelan tera
Ġlegisla tura
Ġdetermin ados
ine tes
ĠBo u
Ġmar cando
ĠServi cios
ĠL iver
Ġedi ficaciÃ³n
Ġderro tando
ila ter
Ġefici ente
dor f
seÃ± or
c ÃŃ
ĠBel la
Ġambien tales
Ġes encia
Ġado pciÃ³n
ĠJaco b
cu rio
bi e
dos o
Ġcar dÃŃa
Ġgalard onado
ĠL ac
ĠR ab
ĠMa gal
Ġesf era
ile y
Ġorden ador
ĠLu x
Ġtens iones
ĠAbra ham
Ġinten tando
Ġpan el
tif icia
ĠB M
Ġcap itan
ĠcompaÃ± era
Ġfar mac
Ġperten eciÃ³
ĠFila delfia
c uela
Ġdon aciÃ³n
Ġdepen dencias
ral tar
Ġre ver
Ġhab lÃ³
Ġcatal ana
Ġestudios os
Ġmon umental
ĠhistÃ³r icamente
que ta
Ġin ci
Ġcon ta
Ġd ren
Ġte mor
Ġdefin ida
Ca tegorÃŃa
ĠC ÃŃv
Ġ187 4
xim adamente
Ġtea trales
Ġal z
Ġcan tÃ³
Ġtea tros
199 6
Ġpobl ados
htt p
Ġun idos
ĠAr ts
ĠPer io
Ġri tual
ĠCan tabria
Ġhallaz gos
Ġcap itales
ĠTo wn
ĠGar den
Ġarreg los
re d
ĠA di
Ġabund ancia
di ar
ÃŃ g
so via
un der
Ġconstru ye
Ġferrovi aria
ĠLu cÃŃa
Ġsul tÃ¡n
Ġin mor
ĠX a
Ġasisten tes
ter es
ĠD iÃ³
ĠAnti gua
Ġno vio
L ey
ie ga
Ġres pira
Ġs illa
Ã© ri
Ġ187 5
ĠB ena
Ġbar ran
Ġobten ciÃ³n
in da
Ġ" ".
Ġbus can
ino is
Ġman ufac
Ġvan guardia
Ġexpedi ciones
Ä ĥ
Ġvis tos
Ġa diciÃ³n
Ġcumpl iÃ³
Ġsu d
us co
Ġab uso
ĠCh ann
Ġcolec tiva
p ic
or di
ĠF uego
ĠaÃ± ade
on io
Ġas iento
Ġ6 3
Ġ186 6
rea t
ĠTecn ologÃŃa
Ġlec tor
Ġenla ces
ĠEs par
Ġinvoluc rado
Ġabier tas
v ana
Ġhici era
Estu diÃ³
ĠLond on
ms terdam
ĠG las
Ġapar ente
ĠLen in
Ġdis tancias
Ġperten ecÃŃan
Ġac ora
Ġli toral
Ġextranj era
Ġnom inada
Ġcirc und
Ġinten ciones
Ġguar dias
Ġapar atos
v adas
Ġha ci
Ġabandon aron
Ġb il
ris ti
Ġ9 00
ĠVil lan
ĠRuss ell
w i
ick s
Ġ9 9
ĠVal di
in ero
Ġal ien
Ġubic adas
Ġcuad rado
ĠGu ay
C C
Ġdesempe Ã±a
ĠReci biÃ³
it ÃŃ
Ġcam a
ĠenseÃ± anzas
ĠEx per
Ġ185 7
Ġjug aba
Ġencu esta
Ġhormig Ã³n
ĠG T
Ġan alizar
Ġqu ir
Ġ183 3
Ġocup aba
Ġsuici dio
ĠY os
E T
Ġcab ina
cen t
Ġred onde
ÃŃr culo
ĠC ara
ĠS erv
Ġhubi ese
ĠO tto
Ġsobrevi vientes
comun icaciones
Comen zÃ³
ĠquÃŃm ico
Ġproporcion Ã³
Ġrendi ciÃ³n
Ġsue Ã±os
ĠRad ical
ĠgrÃ¡f ica
199 0
Ġpira tas
bi as
Ġsuperfici es
Ġnorm ales
Ġdeman das
Ġdes gra
it t
Ġsuper visiÃ³n
ĠAthle tic
Ġgran ja
ĠEscu ad
Ġn Ã³m
Ġplan etas
Ex iste
Ã§ a
b aciÃ³n
Ġlig as
ĠJunior s
ĠYo ur
Ġinspir ada
v ero
ĠEmb aj
vir tiÃ³
Ġsens ibilidad
Ġcon taban
Ġmascul ina
ĠL isa
Ġdedi cadas
Ġresidu os
. <
Ġtrans vers
Ġ186 2
ĠdiseÃ± ados
ĠBar re
Ġex il
ĠAl ban
ĠSh ang
ĠÃ¡n imo
Ġenvi ada
Ġran king
Ġpromo vido
and al
Ġdetec tar
Ġdel in
ĠBeat les
ĠB ull
Ġperman ecieron
Ġtradu cido
Ġtra iciÃ³n
cis tas
ĠPÃºbl icas
bo urne
Ġcr Ã³nicas
gra ph
0 7
Ġus aron
Ġconstitu ida
Ã©ndo la
Ġdes esper
qui po
Ġmate mÃ¡tico
Ġvincul ado
ĠK han
gon o
a ga
Ġen fa
jo z
Ã¡ us
Ġvideo clip
stru cciÃ³n
ma y
Ġcorre cta
ĠIsa ac
ĠCle mente
Ġfemin ista
i bre
ĠB org
Ġcolabor ador
M al
e lo
Ġcin tas
Ġfres co
ĠhÃºn garo
ĠDe troit
ĠPra ga
ĠMon tre
Ġocupar on
in idad
ĠC V
Ġconvers aciÃ³n
Ġm esti
Ġinter faz
ĠenseÃ± Ã³
Ġmad u
Ġ8 8
Ġul tra
Ġprivileg ios
Ġcomp res
ĠB ul
ĠtÃŃp icamente
par on
NA M
Ġrefer Ã©ndum
ĠRub Ã©n
Ġsu ceso
ĠSe govia
âĢ ĺ
ĠK ings
ĠEx p
Ġrecep tores
ĠT s
ĠF r
ĠSala zar
Ġefica cia
ĠPar is
Ġpro cur
Ġex ceso
ĠInstitu te
Ġinno vaciÃ³n
ĠCora zÃ³n
Ġmon opol
ĠT ara
Ġcompar a
e to
Ġrespec tivas
ific ados
Ġa tÃ³
Ġsober ano
Ġfam osas
Ġexper to
Ġrepublic ana
Ġcons piraciÃ³n
Ġdestru yÃ³
ĠH izo
ÃŃtu lo
as i
Ġse ca
Ġ rig
Ġanunci aron
Ġmelo dÃŃa
ĠJ ustin
Ġeduca tiva
m isiones
Ġhuy Ã³
ĠlingÃ¼ ÃŃstica
Ġdej an
Ġrad ios
Ġtien de
G ener
ÃŃn cipes
Ġdra mÃ¡tica
Ġdiscrim inaciÃ³n
Ġus aban
Ġde fec
Ġservi dor
v re
ar k
ĠL abora
Ġfan Ã¡ticos
ios as
o x
mi ra
Ġalum inio
ĠComun icaciÃ³n
Ġproto colo
que t
Ġprom esa
Ġfe udo
Ġcri terio
Ġafec tada
Ġ" Â¿
Ġllam aron
ĠBar ry
Ġrelig iones
ada joz
ĠB ris
esti a
Ġir landÃ©s
Ġreemplaz Ã³
Ġdisfru tar
Ġficti cio
Ġv inos
ig ra
ĠAu tor
ĠHispano amÃ©rica
D eb
Ġemp iezan
Ġpe lota
ĠB is
b iles
A A
ÃŃ ticos
Ġser io
ĠSte w
Ġenfer mo
Ġintegr ar
ĠOh io
Ġcontin Ãºan
ĠHo uston
Ĥ ¬
Ġvers o
ur y
ĠAl icia
Ġcelebra ciones
Ġten is
Ġresul tante
Ġrebel de
Ġmas acre
emen t
Ġcon fec
ri era
mos f
... )
Ġ7 8
Ġacos tumb
Ġcompon er
K a
ĠH amilton
Ġorigin Ã³
Ġexter no
mp a
199 4
tin i
Â» ).
Ġperman encia
ta bl
Ġproteg ida
ĠjurÃŃ dico
pec to
Ġcumple aÃ±os
Ġmayor mente
Ġdistin gue
Ġexclus ivo
Ġespecial idad
Ġmanifes tÃ³
Ġvege tal
Ġderro taron
ig en
Ġestar Ã¡
S ol
ham mad
v ente
tos ÃŃ
Ġbal ance
ĠDon ald
Ġc ajas
tr ados
Ã³m icos
Ġde no
Ġper tur
ĠMon umento
cio cho
que Ã±o
ĠNa zar
ut bol
TA N
Ġla titud
Ġencabez ado
ic on
Ġgobern antes
Ġcolo cado
Ġexcl u
Ġar en
Ġar ra
ĠGir l
R S
Ġinicia tivas
Ġestable cidos
Ġobserv ado
z en
br ados
Ġpla y
ĠF ru
ĠVar sovia
Ġcre ciendo
Ġrom pe
Ġide ales
ĠTo da
iz ador
ĠF und
ĠSuper man
ĠMar quÃ©s
ĠH uel
jer ÃŃa
Ġconse jos
Ġplan tel
Ġalgorit mo
Ġhomosex uales
Ġsupon ÃŃa
ĠF Ã¡
ĠArch ivo
Ġexac ta
Ġacor de
ĠJal isco
ad uras
D er
ĠR el
mb erg
Ġprotes tantes
Ġtransmi tido
Ġin tes
ĠI ron
Ġhebre o
As imismo
S oci
Ġp ez
Ġcinemato grÃ¡fico
Ġpre lim
Ġempresar ial
ĠFranÃ§ ois
Ġe cl
ĠPas o
D ie
S er
U N
Ġinscri pciones
Ġecu aciones
tien den
Ġpa tente
tern idad
Ġcap illas
ĠInvesti gaciones
Ġestall ido
Ġrefor zar
ĠCerv antes
mo uth
Ġexten s
b ic
Bu enos
S ch
Ġrecon cil
ĠNo bel
Ġtes tamento
Ġincur siones
Ġcaracter izado
Ġincendi os
Ġfac to
Ġoper ador
Ġprecip itaciÃ³n
Ġcol inas
ĠEsta ba
ĠFor maciÃ³n
P E
0 3
ĠT Ãºn
ÃŃcol a
Ġencabez ada
p ha
Ġaf iciÃ³n
ĠSta te
ga te
Ġoc cidente
Ġsopor tar
Ġ5 9
ha w
ĠÃģ rea
Cu enta
Ġpisto la
Ġaproxima ciÃ³n
Ġdevol ver
g ios
L C
di to
Ġre cta
Ġ" Â¡
Ġfantas ÃŃa
ĠSin gapur
Ġb ara
ĠAgu ilar
Ġeduca tivos
qu Ã©
Ġdecl ive
Ġc he
Ġma ci
Ġlog ro
Ġterror istas
Ġl Ã¡s
Ġnorte americano
ĠAl merÃŃa
Ġre po
Ġsobre pas
Ġnoven o
Ġsubmar inos
Ġpi ernas
ĠSar miento
ĠAri as
Ġ3 50
ĠEs tuvo
tas e
Ġemi te
ĠS la
Ġliter arias
Ġestable ciendo
Ġrevolucion arios
Ä ±
Ġpas aje
ĠDe bu
ab il
ĠIgu almente
un k
ĠW all
Ġfran quista
ĠM esa
Ġcercan ÃŃa
r ales
al ta
ĠFran z
Ġaten der
Ġluch ador
Ġgen Ã©rico
Ġ187 7
Ġp ur
Ġres ide
ĠEsper anza
ĠZ u
Ġmaes trÃŃa
Ġsubmar ino
d d
Ġculmin Ã³
Ġest Ã©n
ĠPatr ick
uda ciÃ³n
hel m
Ġbiblio tecas
ĠBÃ¡r bara
Ġter apia
Ġmir ada
Ġestall Ã³
ec he
Ġcos tera
b ablemente
Ġtrage dia
ĠA ustin
Ġenfer mos
Ġarm adura
an cha
tu to
Ġpar ad
Ġpobl ada
Ġpol in
Ġemo cional
e ja
Ġman siÃ³n
Ġmis terio
Ar t
et z
Ġale gando
Ã ¯
199 2
z Ã¡n
ul k
Ġapos tÃ³
Ġde tuvo
ten iente
Ġhab lando
Ġre ab
ĠL ud
Ġinter cep
ĠCo ch
ĠA us
Ġchil enos
Ġarque olÃ³gico
Ġencarcel ado
d ano
po dos
Ġno tar
ĠVa tic
Ġocta va
ĠC N
ĠEd gar
fec tura
ĠPrim ero
ĠLiver pool
ĠD ic
Ġestu viera
f amil
Ġconvier ten
ĠDi ario
Ġtestimon ios
Ġv ener
ĠL abor
Ġinter vino
Ġlimp ieza
Ġcons tancia
tur bios
Ġcic los
0 4
Ġop tÃ³
v ern
Ġsol em
Ġcer veza
ĠP om
Ġpatr ona
Ġdestin os
g icos
Ġdivi dir
v ing
M as
Ġmole cular
m icos
Ġaustral iano
Ġse udÃ³nimo
Ġac cidentes
ĠCon cilio
ĠAustr al
res Ã³
ĠDes tac
Ġadolesc encia
ĠhÃºme do
o b
ĠM ega
ĠGu a
ic ar
Ġlarg ometraje
Ġsepar Ã³
hua hua
Ġp ÃŃ
ĠC BS
y u
Ġs Ã³
v ilidad
ĠX box
ud Ã³
p son
i ja
Ġbru tal
Ġv illas
Ġ7 7
Ġcos tarric
Ġju di
Ġauto bÃºs
bi ente
Ġindi cÃ³
Ġdefin iÃ³
ar th
Ã©r col
Ġcome tido
Ġri tuales
ã ģ
olog y
Ġases inar
Ġdevo ciÃ³n
Ġinvi taciÃ³n
Ġoblig aciÃ³n
hat tan
Ġdisc ÃŃ
c Ã¡ndose
Ġafec tÃ³
Ġbal Ã³n
Ġcolap so
Ġejer ce
ĠAgr icultura
" -
ĠT ito
ij Ã³n
men tas
Ġbar rera
ĠPon ce
vi amente
ĠTri ple
g na
Ġin quie
ĠAl ice
Ġamb ientes
Ġprepar ado
Ġrendi r
ĠA man
ĠCh ac
Ġ7 4
Ġrom an
Ġ18 14
Ġmanifes tantes
Ġp ra
ti me
Ġrehab ilitaciÃ³n
ĠC asta
Ġpa vi
fa to
ĠLeg iÃ³n
Ġprohi bido
Ġantece dentes
Ġacus ados
Ġregistr ada
Lu is
ro co
la u
ĠAra bia
Ġmon gol
p Ã©
Ġcor riÃ³
J e
Ġ18 00
Ġlim itaciones
ĠI ma
Ġesca pe
ĠvÃŃn culo
Ġvo caciÃ³n
Ġfib ra
cam po
Ġterri toriales
one y
ĠThea tre
Ġcre an
ĠPa ula
ĠTen iente
Ġvis uales
) ".
Ġme d
Ġfavor ito
Ġdocumen tales
Ã³ grafo
Ġterror ista
Ġbombar de
Ġporta voz
Ġnego ciar
ĠMal vinas
idar idad
x is
Ġsindica tos
ĠK ara
Ġrode a
Ġexplor ar
Ġmas ivo
Ġcho que
Ġascen der
Ġ ola
Ġsal iendo
ĠÃģ msterdam
Ġsome tido
Ġata ca
Ġcan on
Ġde dos
Ġs h
Ġcircu itos
Ġtr u
Ġrom ance
C re
ĠEx iste
Ġliter almente
Ġcom puestas
ĠH ero
Ġmer cen
j al
ĠN BC
Ġ6 7
ci co
Ġprohi biÃ³
Ġpe d
ĠP ia
Ġcorpor al
Ġtransfer ido
ĠS iendo
Ġdescri ben
Ġconclu ir
Ġestudi antil
dic amente
ch adas
ev ales
Ġrecor re
Ġdeca dencia
ĠLic eo
B er
Ġespecial ista
Ġpol acos
Ġg ay
ĠMa ta
ĠChann el
Ã³cra tas
z aba
Ġsolici tar
p ensa
ĠCol o
b ÃŃan
Ġinfluy ente
Ġescuad rÃ³n
Ġp ilas
ĠAca dem
Ġn ub
Ġcor tar
Ġte la
Ġpres iones
ĠSer rano
Ġembal se
Ġcal cular
Ġrad ar
Ġisrael ÃŃes
Ġf ijo
Ġv s
ĠN am
Ġsal ario
cas o
Ġpresen tador
0 2
G T
ĠA dol
Ġlegisla tivo
Ġtra i
Ġapar eciendo
Ġcompar tiÃ³
: "
Ġdescub rieron
erbaiy Ã¡n
Ġinde penden
ĠBar ra
n ell
Ġdi am
Ġcons on
Ġcorpor a
ĠIz quierda
Ù Ħ
Ġbor des
Ġpregun tÃ³
Ð »
ĠSud americana
Ġet n
lo ck
Ġpan eles
Ġdetermin adas
u ci
Ã¨ s
ĠD ion
Ġmin erÃŃa
Ġoposi tores
ĠAlvar ado
is cos
Ġtor o
Ġvendi das
Ġembara zada
ĠTrabaj adores
Ġa zo
Ġh emos
Ġar bus
Ġco e
Ġtraslad aron
ĠS Ã³lo
ĠclÃ¡s icas
on ga
mos a
ĠF ÃŃsica
Ġdis puestos
ric k
ren ce
Ġrel l
Ġvas co
Ġh arÃ¡
Ġabier tamente
Ġsustitu yÃ³
Ġdescon ten
Ġautom Ã¡ticamente
Ã¡s ica
Ġev olu
ĠD ÃŃas
ĠJ in
mi te
ĠJ i
M ich
qui pa
Ġinf lam
Ġindustr i
Americ an
E mp
Ġmal os
ĠN ich
ĠO re
ĠLÃŃ bano
co ta
era triz
zar o
in c
Ġb ea
ĠB ren
Ġservi do
T res
C hi
Ġpor no
Ġna tiva
ĠSa tur
Ġlo cu
ĠCh arlo
Ġ6 1
Ġmar iscal
ĠÃ¡ tomos
Ġform ados
ĠDa ve
Ġmal as
ĠGib raltar
Ġma tr
ĠOl imp
Ġmodific ar
Ġt on
b rando
ĠR ally
Ġmodific ado
Ġmes eta
Ġprofun das
Ġinfan tiles
ĠFrank lin
ĠL Ã¡
Ġrea par
Ġra tific
Ġse des
ĠF ir
ĠO ce
por tes
Ã³r ica
ĠM Ã©ndez
pa tr
ĠPos ee
ĠMal asia
Ġ3 60
ĠCan aria
ĠVillan ueva
Ġprop uls
ter apia
Ġdue Ã±os
ĠNA SA
Ġavanz ado
Ġembara zo
ĠRevolucion ario
Ġp irÃ¡mi
Ġal en
Ġcen trÃ³
v ÃŃ
ĠvÃŃn culos
Ġma tando
Ġconf lu
Ġadministr ador
ĠHab sburgo
ometra jes
er io
ĠHam burgo
ĠrÃŃ tm
ĠLa v
Ġautor ÃŃa
Ġsupervi vientes
ĠM inas
ĠCons tru
ti emp
ĠK le
ĠÃ¡m bitos
ĠPascu al
Ġrenacen tista
Ġes la
Ġcatedr Ã¡tico
S I
lo p
ĠPo tosÃŃ
Ġdesapar ecer
her e
bla je
Ġsho ws
Ġsalv aje
ĠChristo pher
Ġrela tivo
Ġlider ada
E d
ĠS aba
Ġe u
Ġin esta
Ġperman ecen
ĠFa ir
Ġequip amiento
Ġat mosf
Ġin cu
cip iente
Ġt h
ĠfotÃ³ grafo
Ġhi drÃ¡ul
Ġab ra
Ġ6 9
Ġfr om
ĠMan chester
8 00
Ġmil icias
Ġfan t
Ġinteres ado
ĠG ames
Ġinvi tÃ³
Ġfres cos
ĠWal ker
Ġdese aba
Ġre to
ĠhelicÃ³p tero
Ġinfluy entes
Ġdes ar
ĠConstitu yente
h asta
Ġcol egas
Ġasoci adas
ĠC IA
Ġ ),
and ina
Ġentr ando
telig encia
ĠK ris
Ġp Ã©
ĠI N
ĠCh er
vi ese
f Ã³n
Ġ( ),
ĠG h
Ġlin aje
f l
ĠAn ne
ĠPres s
Ġaprovech ar
Ġdescen dencia
Ġsu puesta
ĠHern Ã¡n
ĠR ang
Ġlu cro
Ġres on
Ġllev arÃŃa
Ġabog ados
ĠHuman idad
Ġ8 4
ib il
Ġinten tan
ĠS pin
ĠFu entes
Ġobserv Ã³
Qu Ã©
Ġ185 9
ĠM eso
Ġex hi
Ġsuperfici al
Ġferro carriles
ah ora
ĠCorpor aciÃ³n
is ti
tar i
Ġfr ÃŃa
Ġincorpor ado
Ġcomerci ante
Ġcusto dia
e Ã±a
Ġdie ciocho
vel as
L es
p ina
Ġsecues tro
ĠTÃ©cn ica
br ica
ĠÃģ r
ĠAb ad
ti laciÃ³n
Ġse t
Ġdes cal
ĠAr gen
ig e
Ġtemp ran
Ġmision eros
ĠMas s
t ton
Ġse mb
qui la
Ġdiagnos tic
t Ãº
Ġt onos
Ġequi pado
Ġr ena
Ġpresi dido
Ġcontrol es
ĠBus h
Ġescas o
Ġorg Ã¡nica
Ġdistribuy e
tad t
Ġvis u
6 00
Å Ł
Ġnacional ismo
Ġampl i
ĠUn der
ĠAl b
Ã¡m icos
Ġnar raciÃ³n
ĠPen al
Ġpres as
Ġposi tivos
Ġinici ada
Ġfal sa
Ġla zos
Ġa gencias
Ġqu eso
ore ma
Ġespe jo
199 1
Ġdesaf ÃŃo
Ġsorpren dente
ĠD Ã¡
ĠAle mÃ¡n
199 3
Ã¡n ager
ĠAir lines
Ġdesconoci da
Ġinter ino
ĠLo ck
Ġas turi
Ġinf il
igg ins
j un
Ġc itar
ch or
ros a
Ġafric anos
uy e
ĠConstan tino
l ina
ĠM eg
Ġgener ado
Ġante ces
Ġaustr ÃŃa
ĠPer ten
vi dades
Ġnav ÃŃo
Ġ182 5
ĠÃģ ra
ĠAcu erdo
Ġdisposi ciones
Ġmanio bra
Ġazul es
Ġo dio
ĠH op
cl as
ĠAlba cete
Ġa porte
an im
do wn
ĠAm or
Ġrecre a
Ġpal e
ĠC ementerio
Ġopon ente
Ġdisminu ir
V i
Ġcom enta
Ġtr Ã¡g
Ġconde cor
Ġalcanz an
P an
Ġfal la
el t
Ã Ł
tic al
ĠAz erbaiyÃ¡n
Ġtr acciÃ³n
ur u
Ġtrayec to
P al
Ġma terna
Ġpractic ar
pi Ã©
Ġotor gar
Ġacog ida
Î »
Ġhab itan
p ton
s us
il era
Ġcontrol ado
Ġexcep cional
ĠAdam s
Ġemple ar
gn er
Ġsos tuvo
ĠÃº tiles
Ġdu cado
ti ra
Ã© i
Ġu til
ĠÃ© tica
Ġprevi os
Ġo ve
ig Ã¼
Ġpo zo
Ġbas Ã³
Ġ1 18
Ġcas er
Ġaso cia
Francis co
ĠLa gos
ion ada
Ġrepar aciÃ³n
ĠChi huahua
s che
Ã³r ico
ĠAle ks
Ġmate mÃ¡tica
Ġreflex iÃ³n
z zo
Ġqu is
Ġactu alizaciÃ³n
Ġdivi den
Ġdor ado
Ġcorre cto
Ġalim enta
Ġcompu tadoras
ĠAr ti
Ġabandon ada
es os
Ġdis tra
Ġab o
Ġcaracter izan
Ġasis tieron
Ġvo tar
itu ania
ĠIll inois
Ġcomba tientes
Ġla tinos
Ġestruc tural
Ġl lor
om i
Ġauto pista
ie gue
Ġjer arquÃŃa
Ġtr il
Ġas cens
Ġprodu cidas
n g
Ġto po
ĠCon go
l um
se e
eci das
V I
ĠFuer te
Ġcas ta
Ġemplaz amiento
Ġna cion
ĠMa gazine
ĠenseÃ± ar
Ġp ino
Ġrepresen tados
Ġsacri ficio
Ã¡ b
Ġt Ãº
ĠMontre al
c ad
Ġin tra
Ġafirma ciÃ³n
Ġe man
ci paciÃ³n
th or
ĠseÃ±al ado
Ġaerol ÃŃnea
ĠK as
Ġn ec
Ġens am
Ġbol sa
tr ibu
Ġefec tivamente
tor ÃŃa
ĠMar x
is fer
Ġretir aron
Ġtron co
P lan
Ã©n ico
so bre
Ġdiplom Ã¡ticas
Ġmulti plic
20 17
lic e
ĠBoe ing
A u
Ġintrodu ce
Ġtelevis ivo
ĠOrig inalmente
G er
Ġprovo cado
Ġtes oro
ĠV uelta
Ġsim bÃ³l
Ġrecur rente
Ġrealiz arse
iel or
Ġconven ciÃ³n
Ġdeleg ado
Ġinus ual
Ġceremon ias
ĠAriz ona
Ġsol ares
tur ado
Ġ8 2
Ġse cos
Ã ¥
Ġtermin ada
Ġsobrevi viÃ³
Ġsatisfac er
Ġo ce
L P
Ġto ur
Ġconven cionales
ĠTa ilandia
Ġpon en
ĠMer cado
Ġclaus tro
Ġtras torno
Ġreci bida
Ġpes cado
Ġc uevas
Ġperman entes
ĠB ond
is os
ĠM ys
ĠSin fÃ³nica
San tiago
g ÃŃa
m ada
Ġcon gregaciÃ³n
j aba
Ġf iebre
Ġcontinu amente
ka i
ecre tario
T I
ĠEn g
Ġtras tornos
ĠBos nia
ĠLegisla tura
ĠH ubo
Ġle ve
ĠSpor ting
Ġrom anas
Ġdor sal
Ġbe bida
Ġcap itu
Ġcorrec tamente
Ġd aban
ĠT ed
Ġconf is
Ġadqui rida
Ġestudi ado
ĠRev ista
ĠelÃ©ctr icas
t omo
Î µ
don ado
Ġp abellÃ³n
Ġincl us
ĠQue en
Ġestad ÃŃsticas
ĠAr ri
Ġofre cÃŃa
g g
Ġro bar
ĠCab ildo
ĠArgel ia
Ġembarca ciones
ta bles
Ġpan tal
me di
Ġalfabe to
Ġreal ismo
pr incip
Ġconcur sos
Ġremode laciÃ³n
fic Ã³
Ġart ÃŃsticos
Ġenfer m
los o
Ġrecor rer
ĠP ay
ther ine
bi le
w itz
Ġqued aban
Ġv ienen
Ġsem estre
Ġcla ves
Ġe uro
Ġ183 5
ĠdiscÃŃ pulo
an drÃŃa
ĠG loria
Ġutiliz aban
Ġregres aron
Ch ar
Ï ĥ
ĠP ronto
Ġto que
Ġcos tado
Ġjug aron
ĠWe ek
ĠIndustr ia
idel idad
Ġespeci alizados
ĠT ren
E M
ĠB eck
Ġmedi evales
ve laciÃ³n
Ġ185 6
Ġcay eron
ĠCar lo
ti cias
Ġcom isiones
vo ca
Ġcu Ã¡n
Ġhomosex ualidad
ĠContin u
ĠParro quia
or t
or ada
Ġb endi
ÃŃn guez
ĠPu blic
Ġplen amente
ĠPol o
Ġanun cios
ĠC aja
Ġdetermin aciÃ³n
Ġper su
ĠmÃ¡s cara
Ġas pira
Ġtraslad arse
ĠA ur
ĠF ire
Ġcal cula
ĠH ijo
Ġdestin adas
Ġsinte tiz
i vidad
Ġfre cuencias
Ġferrovi ario
ĠMan hattan
Ġguitar ras
Ġpier na
Ġ185 4
ĠJ azz
O M
Ġdespe dido
Ġfal so
ri tos
ĠFace book
et ÃŃn
espe are
Ġsufrag io
se gÃºn
ĠIb ero
Ġ Ä
ĠMa cedonia
ti ro
198 9
Ġpoder osos
Ġrepe tir
W ill
ĠIs l
ĠRen Ã©
Ġreivin di
Ġescu dos
Ġdivor cio
Ġsecre tos
Ã¡ce as
Ġcria turas
A mb
B ro
re ll
âĢĻ ,
Ġfabric ar
ĠA mp
Ġcu Ã¡l
Ġcomp il
Ġaproxim ada
Ġconcej al
ĠArm ando
Ġreg ente
Ġver tiente
Ġ7 3
Ġencar n
d ora
ĠBar t
ĠD iana
omb ro
ĠNe u
ĠSh ar
avi ones
al los
Ġper dida
Ġseptentr ional
Ġentr an
Ġal usiÃ³n
Ġsos tienen
n io
cor por
Ġdescubier ta
Ġle j
ĠÃ³ pti
t Ãºa
ĠF all
ĠOl iv
a tas
Ġmar inas
ĠMinis tros
Ġsen ten
Ġcu ero
Ġdis cul
Ġad her
ĠF ores
Ġpanor ama
mack Down
198 5
to v
Ġestren ado
Ġpas arÃŃa
Ġsegu ros
Ġocu pan
Ġm osa
Ġarres to
r erÃŃa
Ġsi ti
Ġmon as
i tim
ÃŃs ticamente
Ġcelebr aron
Ġtri ang
Ġexperimen tÃ³
Ġho teles
Ġcolabora ciones
estruc turas
Ġa jedrez
Ġmic ros
Ġincre mentar
Ġexperimen tado
Ġmue bles
ĠmarÃŃti mo
Ġex tr
ĠPon tificia
Ġvenezol ana
Ġagru paciones
uc risto
ĠO TAN
ĠK iev
ĠMarsh all
Ġfun eral
Ġro ta
Ġatra jo
ĠGobern aciÃ³n
ul ada
Ġarmon ÃŃa
Ġubic Ã³
Ġinflu enciado
Ġpu ro
Ġdes tro
Ġt ÃŃa
gan ta
te x
ĠG Ã¼
Ġro jos
ĠApol o
ĠAr istÃ³
is ma
Ġcuad rada
Ġp Ã³l
Ġin cidentes
Ġrom Ã¡ntica
Ġa tes
di gos
Ġpre ciso
Ġcer tific
Ġpredeces or
Ġliter arios
Ġmaquin aria
Ġcon des
ĠT C
Ġtempor ales
Ġsuces ivamente
ue vo
Ġper if
ĠBr uno
ĠB ale
Ġdi mi
ĠH D
ĠPe kÃŃn
ĠDu bl
ĠEm ma
Ġmanifies ta
Ġelim inÃ³
Ġproporcion an
Ġrep rim
Ġ ÃŃ
ĠDra gon
An te
Ġalcal dÃŃa
f uer
Ġparale la
ĠI P
Ġpo Ã©tica
Ġsu mar
Ġdispon ÃŃa
Ġsuger ido
Ġde udas
Ġvis ibles
ĠAlcal de
Ġn acer
Ġ9 6
ĠXa vier
Ġforma tos
Ġcar ica
produ cciÃ³n
ĠVil le
Ġcan ciller
Ġro les
Ġref ieren
Ġlibre mente
Ġlider Ã³
Ġcer v
W A
ĠH ud
Ġpor tero
ĠMa t
Ġinstal aron
Ġfigu ran
Ġexpor taciones
Ġinvolucr ados
Ġapar tamento
Ġproxim idad
Ġm Ã¡nager
Ġorganiz ados
Ġnorte americana
ĠSal inas
ĠSh el
Ġprecis a
Bar celona
ĠJord an
ĠM ack
Ġestudi a
Ġdepen der
Ġdis turbios
Ġha ga
ĠSon ora
Ġilus traciones
Ġplan a
al te
dum bre
Ġen ven
Ġorigin aria
Ġs am
ad ir
Ġaudio vis
ĠDiÃ³ cesis
Ġpes ados
Ġaprovech Ã³
" Â»,
B an
ĠCh ev
ĠW right
Ġmara vil
Ġin to
ĠDec lar
Ġc ÃŃv
ĠMagal lanes
val os
o z
Ġan Ã¡
Ġbas ÃŃlica
ĠaÃ© reas
m ones
ĠDis co
Ġseg mentos
ĠW ho
th al
Ġdefens iva
Ġagricul tores
Ġe gres
o ff
di llas
Ġfra ude
ĠV igo
gen os
Ġam ino
Ġmer ca
Ġgobern aciÃ³n
Ġprece dentes
Ġcas tillos
m und
Ã³ b
cu les
Ġins tancias
ĠDel gado
ĠT ac
Ġconden ados
Ġponer se
il er
Ġinstal ar
ĠMa ur
p ta
in ton
Ġpar ientes
Ġdes ac
ĠB ey
Ġcomerci alizaciÃ³n
Ġmeta bol
Ġcintur Ã³n
Ġcoinci de
Ġprov ienen
Ġcr uel
Ġparlamen tario
Ġinterven ciones
Ġhol andÃ©s
ĠreÃºn en
ĠEstre lla
ĠCha co
Ġescol ares
er t
Ġen tabl
Ġprome diÃ³
Ġdeterior o
fortun adamente
ĠT as
ĠN as
Ġlabor ales
ĠRena ult
ĠL il
qu ino
Ġcab ildo
Ġoscu ridad
Ġsol ÃŃan
Ġban dos
Ġ7 1
Ġsegu ÃŃan
f Ã³nico
Ġ18 11
Ġconsider aron
ĠPrin ce
ti bilidad
Ġex al
Ġpre venciÃ³n
Ġocta vos
Ġcontrol ada
. âĢĿ
Ġdes vi
Ã©r f
Ġrel i
g aban
Ġc itada
Ġorigin ario
Ġelim inados
" (
Ġrad ial
ĠeconÃ³m icamente
qui to
Ġg ros
Ġartifici ales
ĠFrances co
Ġvence dor
in k
fici os
ĠBea triz
Ġras tre
Ã©rcol es
ĠCo oper
Ġafirm ar
Ġres idente
Ġacom paÃ±a
Ġlic enciado
rag ona
Ġd uras
bi t
Ġqu ie
Ġdesp leg
s ic
Ġan cha
Ġoblig ada
uero a
ĠO mar
tas io
Ġescu cha
ĠIn ma
ĠCh el
ĠCan ciÃ³n
Ġconsum idores
Â» ;
ĠZ ar
ĠOb tuvo
pe cu
Ġdipl oma
Ġla p
f en
ĠC res
Ġan illos
bo t
Ġa mo
ĠF ama
Ġvol viendo
us traciÃ³n
if t
tall ones
Ġjue ves
Ġsit Ãºan
Ġdesf ile
ke ting
ĠLy on
Ġinterna cionalmente
Ġcristi anas
ĠR ho
Ġge ometrÃŃa
Ġacce diÃ³
Ġpr osa
Ġfinanci eras
Ġhal lan
ĠL ight
ĠH ome
A h
ĠOc Ã©ano
tr Ã¡n
ĠCentro amÃ©rica
b ana
ĠThe o
Ġpan demia
Ġprogres ivamente
fic ada
ĠPas eo
Ġprimi tiva
ĠChia pas
Ġta quilla
ĠConce jo
u i
Ġla gunas
Ġest ÃŃm
Ġdic tador
Ġarro yos
ĠMunicip alidad
Ġtransmi te
Ġterror ismo
en ne
Ġsu biÃ³
Ġconvir tiendo
B as
Ġoblig aciones
te za
Ġ182 4
ĠAntio quia
ĠGo do
B lack
ez ca
pu ra
V ic
Ġta baco
Ġnega tivos
aj Ã³n
pl icaciÃ³n
Ġamar illa
ĠWay ne
ĠM itch
ĠSor ia
Ã© jar
ĠPar te
ci era
Ġen cendi
Ġle Ã³n
Ġpromo viÃ³
In stitu
ĠPal mas
ĠsatÃ©l ites
Ġen tiende
ĠBu car
Ġbi ologÃŃa
ĠEcon Ã³mica
k is
ĠB es
pa c
ĠV ig
Ġca fe
Ġcondu c
Ġcria tura
Ġbe bidas
ĠA vel
ĠO br
Ġvis igo
ti cidad
Ġcaus ada
Ġsocial ismo
ĠSac ra
cu erdo
ĠNo che
ĠV ideo
Ġdeclar ar
Ġ185 5
iz aba
Ġfran cos
ĠG ru
Ġdi aria
ĠT ul
Ġsignifica tivos
ĠL legÃ³
Ġcultiv ar
Ġenvi aron
ĠH ell
Ġ185 1
Ġnav ales
Ġmane jar
Ġna tivo
Ã© f
Ġdescu bren
ĠCarta go
z el
Ġenv ÃŃo
Ġretro ce
Ġrecol ecciÃ³n
Ġale a
Ġpl omo
Ġcontribu ir
P D
à ¸
ch Ã³
ĠRo os
Ġespa ciales
Ġsos tener
it ano
ĠCin co
Ġmand ÃŃb
Ġbille tes
ro w
Ġperfec ta
g ie
ĠRes ta
Ġ9 2
ĠMo on
ĠVal dÃ©s
Ġbel la
Ġnoctur no
Ġeste lar
tol icismo
Ġv iendo
ĠPatr ia
Ġmodern izaciÃ³n
Ġrestaur ar
Ġinsign ia
Ġpr ÃŃncipes
tÃ³r icos
Ġfomen tar
Ġal ba
Ġti ra
ĠTes tamento
Ġab er
Ġter ap
Ġtom adas
ĠHaw Ã¡i
ĠOlÃŃmp ico
ĠF itz
Ġdispu tas
ĠFer rar
V ID
ĠF iat
los a
Ġpresiden tes
w al
Ġgeo grÃ¡fico
Ġcre adas
Ġpodr Ã¡n
M in
Ġpreserv ar
ĠPens ilvania
ĠB y
Ġpun tas
B ol
Ġv est
20 18
Ġterri ble
que Ã±a
hem ia
Ġdeci mo
rÃŃ quez
Ġf ero
ĠÃ¡ cidos
Ã¡ndo les
Ġtur no
Ġ8 6
Ġrode an
ĠValdi via
Ġes enciales
ĠPol it
Ġhon ores
Ġc ÃŃ
ĠT rump
Ã³s tol
Ġcru za
Ġbau tizado
ĠRum ania
ran e
ĠB adajoz
Ġher ida
ĠInter Ã©s
m ona
ĠA bel
ch ado
Ġjef a
Ġpen it
ĠMexic ano
ĠConte mporÃ¡n
ĠMar c
ĠArro yo
ĠJ enn
Ġtor tura
pan ia
pla y
iz adores
Ġet nia
Ġ185 8
ĠDom ÃŃnguez
o ya
Ġna cidos
Ġin ciden
dor e
ĠQu ÃŃm
Ġotom anos
ĠD iam
ĠBa g
ĠHer manos
Ġesca pa
th ing
Ġgrab aron
Ġinmedia ciones
ĠDal las
Ġcambi aron
Ġemple ada
ic ol
Ġincorpor ar
ĠSol edad
Ġexpon e
comun idad
Ã³ dromo
Ġdeleg ados
ti mo
Ġdis olviÃ³
Ġcaracter izÃ³
Ġdona ciones
Ġt endi
ĠS ecciÃ³n
ĠDy lan
Ġexpecta tivas
Ġconquis tÃ³
Ġevalu ar
ci ble
us te
Ġfir mas
Ġasi Ã¡tico
ĠHora cio
Ġlo bo
Ġfis cales
Ġde tecciÃ³n
il s
Ġfin alizaciÃ³n
Ġsurg ido
Ġcub ana
Ġcrim inales
ĠK in
ĠCon gregaciÃ³n
al ismo
Ġestable cidas
en tu
Ġaustral iana
ĠJona than
ĠPar al
ĠVatic ano
O L
Ġdomin aciÃ³n
te os
Ġbar ras
Ġencar gados
Ġsupl ente
ĠCÃ¡r denas
ĠAl rededor
Ġpos guerra
Ġrecha za
ĠTÃºn ez
ĠE c
Ġfesti vidad
Ġmotoci cle
ĠGu ad
ĠUn os
uel tos
Ġsuper hÃ©ro
Ġsum erg
Ġes tal
Ġcosech a
Ġex puesto
Ġescal eras
ĠSie te
ĠFron tera
Ġdemon io
Ġindi cando
den omin
Ġtermin an
Ġv ector
Ġmix tas
en ix
Ġvar iar
ĠDan ce
ĠF os
ĠMatt he
Ġper ju
ĠFer rer
ĠteÃ³r ico
ud ales
Ġhom ici
Ġ185 3
Ġsu izo
ĠGan Ã³
v on
te gra
Ġso y
Ġcar ece
Ġtu bos
Ġdes pi
Ġres tante
Ġtur ÃŃstica
Ġla dr
Ġnervi oso
ca te
ĠJa va
col mo
Ã©s el
ins tein
Ġca vidad
Ġang los
ĠL ad
des es
ĠÃ¡ngel es
Ġcon gel
Ġconven io
Ġob ede
Ġadministra tivas
ĠRepresen tantes
ĠTer ry
Ġenfren tan
Ġfra gata
ĠN um
Ġafec tar
b orn
ĠGas par
Ġpes ada
Ġv ien
Ġrealiz aban
Ġestim ado
M il
ier ras
Ġsuces ivas
Ġemo ciones
Ġla deras
ĠA guas
Ġcam iones
Ġemple an
ĠIb n
Ġba te
ĠJes ucristo
way s
Ġre mol
Ġsus pen
Ġcir u
Ġconce dido
Ġexter nos
ĠChip re
ĠA TP
Ġref rig
198 3
Ġavanz Ã³
j ol
er mo
di ble
tu lo
res a
Ġcay endo
an ta
Ġcar ros
Ġdemos traciÃ³n
ĠProdu c
ĠShak espeare
Ġhue vo
V ir
ven ida
Ġrelacion a
ĠÃ¡rbi tro
Ġespec tador
ĠCal lao
ĠFig ueroa
ĠEnerg ÃŃa
n an
Ġqu itar
Ġplan taciones
Ġaumen tado
ĠTrabaj Ã³
ĠK re
ĠdiseÃ± ar
Ġincur siÃ³n
ĠAR N
Ġlevan ta
or ios
Ġmez quita
Ġla br
Ġf es
Ġtr ajes
ĠOr ganiz
ues tro
Ġampl ias
ĠJer ry
Ġreg alo
Ġhi er
ÃŃri tus
Ġpres tar
ĠWa ter
ĠG im
Ġ12 5
i tivo
ĠBri tish
Ġsignific aba
Ġesque leto
Ġmonas terios
s hire
Ġca ÃŃdo
s ar
ÃŃf icos
i tis
la za
ĠSan tuario
Ġmix ta
f r
Ġtrabaj aron
Ġperten ecer
Ġexpuls ados
Ġen cues
Ġemb os
Ġ184 2
H ol
Ġargu menta
Ġgal erÃŃas
vÃ© ase
ĠBa k
Ġ183 4
Ġm iel
ĠPar do
Ġser vÃŃa
ĠFran ce
ĠPro tecciÃ³n
Ġexig e
b lan
Ġen ro
Ġconven ciÃ³
Ġpropor cional
Lo ve
Ġconcluy e
en ciÃ³
Ġre gen
ĠAre quipa
ĠQuin tana
po t
Ġgas to
ĠO cu
Ġcentr ado
Ġ8 1
Ġa gar
vie w
ch ner
ĠJu dicial
ĠRobin son
ÃŃs ta
Ġ18 15
ĠIn Ã©s
d le
ĠP y
ci ario
Ġ5 000
un ya
ĠÂ »
Ġfuncion Ã³
Ġpropor ciones
Ġfu turas
Ġale g
Ġgas olina
Ġpre ma
Ġco pi
Ġcandida ta
Ġhermos a
Ġsemej ante
is hi
ĠQ ues
198 7
ĠAu re
Ġus arse
Ġbu dismo
cÃ¡ zar
ĠPach eco
Ġdo Ã±a
Ġedi ficaciones
Ġjudi ciales
j aron
ĠMo tor
ĠMen or
Ġpa gos
pon er
Ġnego ciaciÃ³n
ĠL ituania
ĠOr g
Ġluch adores
Ġderiv ada
v ora
Ġactiv istas
ĠEsp ÃŃritu
ĠG rim
y al
em e
Ġantigu amente
Ġacus aciÃ³n
Ġcog ni
u tÃ³
ĠG om
Ġentusias mo
ti ce
Ġn Ã³r
ur n
ĠSus an
es table
to les
ma cia
H u
Ġe ri
Ġcolon iales
ĠEdu ca
198 6
ĠJaco bo
v iene
Ġpa ta
Ġar ren
bor g
Ġemis oras
om eo
g ir
Ġpromo cionar
Ġbol chevi
Ġen do
Ġparlamen taria
Ġf ila
ĠK i
Ġca os
Ġdomici lio
Ġater ri
g icas
mp h
Ġprim ario
ĠmÃ³ dulo
w ald
Ġinterac ciones
ĠtelÃ© fonos
ĠC ross
M C
ti ces
ĠAlas ka
Ġun ida
ter res
Ġcu ri
du cto
ic he
ce tas
Ġimp renta
vier te
ĠNor m
Ġpromo cional
Ġadministra tivos
ĠFre der
ÃŃ bal
Ġin minente
Ġfor tific
Ġextin gu
Ġma pu
Ġdor ada
ĠCo ok
Ġartes anos
P edro
Ġabor to
te ado
tre am
Ġdistribu idos
ĠMuse um
Ġ quieren
ĠP ompe
Ġdesign ar
Ġcar pin
ci ero
Ġar ru
Ġna cieron
ĠF ray
ĠOr lando
Ġesper ado
Ġester eo
uy a
Ġdepen den
ĠPie dra
zar t
C r
Ġes tro
Ġdes man
Ġplante a
Ġprior idad
Ġcin es
Ġrecuper ado
ĠCom ba
Ġcl or
Ġapar tado
ĠestratÃ©g ico
Ġprimi tivo
ad ier
O rig
log ÃŃas
ĠPh ill
Ġab rieron
Ġ185 2
ĠE ven
ĠM am
Ġter mo
% ).
ĠAlej andrÃŃa
ce o
ĠCol ombi
Ġdesembar co
Ġdial ecto
ĠBenjam in
ĠSpor ts
Ġinterme dio
ĠMus ical
B N
l on
Ġv ec
ĠaÃ±ad ido
Ġv ene
ĠBar b
Ġmec Ã¡nico
Ġcan tera
Ġf luy
ac tualmente
aliz ando
ĠtriÃ¡n gulo
Ġcon mo
ĠCh eca
Ġri ego
Ġconsol idaciÃ³n
n eg
Ġdecis ivo
ĠReg istro
Ar gentina
Ġdenun ciÃ³
Ġpromin ente
ĠDebu tÃ³
ĠDar ÃŃo
Ġtril ogÃŃa
ĠP le
Ġcu Ã¡ndo
in gen
tempor ada
d ulos
el io
Ġr ugby
Ġevi tando
Ġagreg ado
Ġn ido
au x
tor e
Ġfabric ado
vi ales
Ġpa quetes
Ġhor ror
Ġlla ve
ĠR A
Ġpol aca
Ġafec tadas
Ġdi jeron
Ġparticipa ciones
Ġdenomina ciones
ĠÃį n
ĠMon s
Ġestablecer se
Ġal ias
mÃ¡ ticamente
Ġfemen inas
Ġm ueve
Ġf um
ĠI bar
Ġdenomin adas
Ġinvolu cra
bs ide
Ġdel iber
aj u
Ġgener ando
Ġacab ado
ĠF landes
ĠâĢ ĭ
ĠVie ja
ÃŃ metro
Ġdi vin
ing os
Ġsac Ã³
en berg
Ġ8 7
Ġda to
Ġjue gan
Ġjo yas
Ġmusul mÃ¡n
in oso
cin to
Ġreconstru ir
Ġortodo xa
f ric
mi d
Ġins tan
ĠStew art
Ġmin eros
ĠGener alidad
Ġcanta u
Ġsecund arias
Ġno ciÃ³n
Ġinterven ir
ĠF ield
ĠRe alizÃ³
Ġpin tado
Ġital ianas
ĠCamp bell
ĠA N
Ġfor zado
Ġadap tado
ĠA x
ĠE u
Ġro jas
ĠC S
ĠEs trada
cul ado
Ġflamen co
l om
Ã °
Ġob tienen
ind Ãº
j adas
Ġsu pera
Ġren ombre
Ġdramatur go
Ġmadu rez
Ġdem ues
Ġman chas
ines s
Ġtradu cciones
Ġnar co
Ġ182 3
ĠS ix
Ġefec tividad
Ġesco cÃ©s
P ese
ĠO S
ĠAn teriormente
Ġentren ar
ĠL A
Ġtard ÃŃo
Ġastr Ã³n
Ġtendr ÃŃan
ĠA pro
Ġpa ula
Ġleg almente
ĠJ ama
enn is
ti go
Ġrev esti
ĠIs lam
pir os
Ġdeba tes
ĠH es
Ġmil itante
ig ar
Ġri bera
ĠLux em
Ġale grÃŃa
Ġelabor ar
Ġhard ware
ri ta
aliz aron
Ġdiecis iete
Ġb log
ĠWil helm
tu oso
Ġ184 7
ĠIn diana
ĠS ay
ĠÃ³p tica
Ġconflu encia
ĠCom pos
ies e
Ġtran qu
Ġmo vilidad
ĠprÃ©s tamos
Ġcr Ã¡
ĠSegu ra
ĠDe an
Ġproducir se
Ġenven en
ĠTur ner
ĠmolÃ© cula
ĠV idal
ĠBas ÃŃlica
g asta
on der
Ġacu diÃ³
ĠI NE
Ġapar ecÃŃa
ge bra
Ġfich a
ĠMaxim il
ĠEs o
Ġco co
Ġcomple jas
Ġrecom ienda
Ġelog iÃ³
Ġcoti di
Ġflan que
ĠO p
ĠMar ch
ill on
Ġfac ciÃ³n
Ġdesapar ece
Ġdemocr Ã¡tica
Ġ ole
ĠGran t
Ġdivi didos
espe cialmente
Ġsen adores
Ġexp lora
Ġnega tivas
ĠSal om
Ġcompro bar
ĠMara ca
Ġcomple tado
Ġdesarroll adores
Ġgas tronomÃŃa
ÃŃp ulos
C er
Ġgu atem
Ġfac ciones
ĠCharlo tte
p ris
is er
ĠÃ¡ bside
Ġelig e
un os
Ġa x
Ġregis tra
ĠAf ric
Ġeclesi Ã¡stica
Ġp ila
Ġdemocr Ã¡tico
Ġseman al
Ġmis il
Ġanterior idad
ĠprÃ³xim as
Ġcohe tes
ĠP A
ti t
ĠB ack
if as
E r
ĠHe art
Ġdon Ã³
Ġfantas ma
ĠR ugby
Ġemprendi Ã³
s y
Ġcor eo
pi das
Ġti p
cos as
Ġdecis iva
pi ter
ĠJo ven
ĠEv ans
G al
Ġayud ado
Ġvice presiden
ke e
Ġjapones as
cuen tro
Ġcolabor ado
Ġacu mulaciÃ³n
Ġplane ado
Y ou
ra to
Ġres id
Ġtrans misiones
olu tion
Ġpelig roso
L S
in ista
Ġof ren
use ppe
Ġacon di
isfer io
Ġfracas Ã³
Ġpr us
Ġprotes tante
D u
Ġfrag mento
Ġcoti diana
ĠS tad
ĠThom pson
ic ano
Ġespecta cular
in aria
Ġhab rÃ¡
Ġhabla ba
ĠSac ro
Ġestric tamente
Ġcohe te
m icas
qu Ã©n
po co
Ġetique ta
Ġdispar a
Ġcastel lana
ĠlÃ¡s er
b ada
Ġindi re
ĠEsto colmo
Ġhu bieran
Ġreper cusiÃ³n
en ha
ĠVen us
Ġvi vido
Ġsimil itudes
ĠP IB
Ġdirec tos
Ġnego ci
Ġact Ãºan
T al
Ġdesp ierta
Ġ182 2
ĠAntÃ¡r tida
Ġres umen
Ġfal s
Ã¡u tica
ub io
ĠGlo bal
Ġex Ã³
ĠEs cal
Ġin tac
Ġcontr ab
198 2
e cimiento
Ġs p
ĠK ent
Ġofre ciendo
Ġestable cen
to la
Ã¡ mb
Ġfil maciÃ³n
Ġprome te
Ġdifun dir
ĠJo urnal
Ġdu plic
Ġsurg imiento
ĠDemo cracia
ĠSqu are
la y
fici entes
Ġvol ante
am ina
Ġresul tar
Ġretir ar
Ġsir vieron
ĠPatr icio
ĠMÃ¡r quez
ĠmÃ¡r genes
198 8
le m
Ġnar rador
c rim
ĠI an
f us
Ġprim arios
Ġ9 7
Ġfinanci ar
ĠhelicÃ³p teros
ĠGra ham
t Ã¡s
ĠBar rios
Ġ183 6
ĠespecÃŃ menes
ĠD eath
iv ar
Ã³s toles
Ġsel los
Ġaus p
Ġcompar tido
Pa ul
Ġcor os
lam o
Ġconven iente
I l
Ġmar ciales
Ġcer do
ĠcÃ³ digos
ĠBe e
Ġinters ecciÃ³n
ĠGar y
fici al
ĠRom Ã¡n
ĠsÃ³l ida
ci tamente
Ġdes inte
ĠB ron
ĠInterna cionales
Ġano tar
ĠÃĵ pera
Ġingre dientes
gro und
ĠF ro
ĠLo cal
Ġgobern Ã³
Ġh eg
en de
Ġrev ers
Ġrecha zar
Ġpales tinos
ĠObs ervatorio
Ġlien zo
Ġrecor dado
Ġexten dida
Ġaflu entes
Ġen ve
is sa
ĠR al
Ã¡n ime
ĠHarris on
d ard
Ġjuz gado
i ya
ĠS car
ĠN eo
Ġte orema
198 4
Ġcoinci diendo
v ario
Ġafirm aba
ĠMas ter
Ġpobla cional
m ers
Ġhab lantes
Ġanfitr iÃ³n
Ġap as
Ġper judi
ĠacompaÃ± ados
icis ta
Ġdign idad
Ġde bieron
Ġt omo
dr en
do este
ĠAllen de
it Ã©s
Ġba tallones
Ġcorre dores
u era
lar ia
ti cu
Ġminis erie
f le
ur ada
Ġ7 9
ĠGer ardo
Ġit iner
p las
ven ir
Ġinteres antes
Ġ184 5
Ġsens ible
ĠStan ley
ĠDubl ÃŃn
ada via
ĠN os
ĠMa tÃŃas
Ġingres a
à ¤
ĠH ue
ĠL omb
ĠAr mas
Ġempez ando
ĠPrincip ado
ĠC ÃŃrculo
Ġsur gen
ĠTer cer
ĠR eno
ĠD ip
Ġ183 9
go Ã±a
Ġdej aba
ĠcÃ¡l ido
Ġremon tan
Ġencu ad
ĠW is
Ġcos teras
Ġextra Ã±a
Ġba iles
Ġin venciÃ³n
Ġ ÃŃdo
Ġdivor ci
Ġo ÃŃdo
Ġ18 13
Ġprogres ivo
Ġinten dente
ĠTrans porte
tam ina
Ġimpresion ante
ĠtÃ¡c ticas
co ck
Ġrecom pensa
Ġpresi dida
Ġl it
Ġsupre ma
Ġincons ciente
Ġdan Ã©s
d ney
di mens
cion ismo
ĠB ec
Ġch i
Ġsimpa tiz
Ġen vol
Ġcur vas
Ġlibre to
Ġserp iente
Ġtrabaj ador
Ġcoron ado
p Ã¡
Ġsim e
Ġrespons abilidades
k g
co u
ĠAn tÃ³n
ĠBu ck
Ġextraordin aria
ĠSys tem
Ġas till
Ġfo co
ĠCecil ia
ĠB res
ĠBro thers
Ġin cen
Ġpr Ã³s
Ġfores tal
G P
Ã¡n d
fer as
Ġservi dores
Ġge org
ĠF omento
Ġinm ers
Ġmedi terrÃ¡n
Ġce der
ĠLaw rence
ĠFerrar i
L E
g ante
Ġso fis
Ġdis tan
ez Ã³
ĠWal t
Ġfis i
Ro ck
ĠF en
Ġra mal
Ġcenten ario
ĠConven to
Ã ¦
os idad
ele y
Ġdispon er
C H
Ġa val
ĠF iesta
Ġafec tan
Ġvalenci ano
X T
ĠFor ma
Ġrecha zada
Ġabsor ciÃ³n
Ġd ragÃ³n
Es tados
Ġfras es
Ġves tuario
Parti cipÃ³
Ġagru p
Ġtraslad ados
isla o
Ġlleg aban
ĠProvin cias
ĠG P
Ġinaugu ral
Ġse du
ĠP et
oma gn
Ġampl ios
ĠP acto
ĠIn teligencia
ile a
MÃ© xico
ĠT aller
ĠI BM
di vers
Ġ |
Ġrecu pera
Ġma tric
Ġsuces ivos
ĠaÃ±ad iendo
Ġmover se
Ġb all
ly mp
or cio
v Ã¡
Ġcomp rado
ĠMor elos
Ġaus tro
ĠFor o
Ġmonstru o
Ġfinaliz ando
em ento
Ãºr gica
ĠF res
ĠRib era
e te
Ġen se
Ġres istir
ĠO m
x y
Ġsignifica tivas
ar to
Ġinf laciÃ³n
Ġger mÃ¡n
] .
Ġprivileg io
p lo
ran za
um b
Ġcer ros
Ġgaran tiz
Ġes cl
Ġdeb ilidad
.. ."
Ġsue ca
ĠO cho
Ġ8 3
Ġre iter
na h
Ġvo tantes
ti lo
Ġlib era
Ġdescub rimientos
Ġvertic ales
- -
Ġnues tras
Ġrefug i
ĠV erg
Ġun d
Ġbas ti
Ġacu dir
Ġocur ren
om bo
Ġestudi an
Ġ9 3
Ġimpon er
Ġnombr ados
Ġsi er
Ġbril lantes
ti ciones
Ġpre ferencia
h as
Ġcom icios
Ġin do
ĠPr omo
Ġgradu arse
te gui
ĠG imnas
net t
ĠAle mana
Ġ180 8
z er
ĠC ano
min as
ĠlÃ¡ mp
ĠCor dillera
osa urus
Ġcomp licaciones
Ġri gu
tagon ia
Ġvir gen
Ġdiscur sos
Ġpla yo
ĠQue bec
Ġre cal
ĠK ansas
Ġestudi ando
Ġro d
Ġesp len
Ġang lo
Ġp Ã³r
ĠL ine
ĠSu cre
Ġcaz adores
Ġaplic ado
Ġhere deros
Ġh olo
ĠPer ry
ĠB ara
ĠG all
Ġac ta
Ġre querÃŃa
Ġan cianos
Ġta pa
Ġadh esiÃ³n
Ã ĵ
Ġsu yos
ĠE TA
Ġhab lado
Ġ184 9
ĠS Ã©
em ia
cep to
Ã¼ l
ĠÃ¡ guila
Ġban ca
ĠW ork
trÃ³ geno
Ġreti ra
Ġfor tificaciones
c ante
Ġvesti gios
c tr
ĠK ate
Ġarre ba
Ġdistribu ida
Ġobliga torio
Ġ8 9
Ġhall ado
Ġa tre
198 0
ĠP ale
Ġurban izaciÃ³n
Ġllev adas
Ġcort ometraje
Ġconcen traciones
Ġsub je
Ġvo c
ĠMo zart
dis cip
Ġreprodu cir
ES CO
Ġarreg lo
Ġextraordin ario
ĠMal donado
Ġcel da
Ġcubier tos
Ġpas ajes
ĠRo ber
Ġtur ÃŃsticos
ĠT ran
ĠCon nec
Ġorganiz aron
Ġano tando
ĠtÃŃp icas
Ġsupre mo
Ġtra tamientos
Ġfe deraciÃ³n
Ġhu mo
Ġca tolicismo
Ġgran os
Ġconsa grÃ³
Ġepi demia
ib us
ĠMon ten
Ġhistor ie
ĠMur ray
Ï Ģ
Ġcons istiÃ³
Ġmedi terrÃ¡neo
vin cia
Ġentr ado
Ġprovo caron
Ġdoc encia
Ġdinosau rios
Ġcre adores
Ġexcel entes
ĠPr ensa
h Ãºn
cil lo
Ġalma cÃ©n
ci fic
Ġencontr ada
ĠRec ord
Ġmuer ta
ĠGener ales
Ġtex til
Ġejerci cios
ĠH orn
ĠM isiones
Ġmay a
Ġmin era
Ġacer camiento
Ġegip cio
Ġfutbol istas
Ġh op
ĠTa k
Ġexperimen tar
i tiva
ĠN ash
Ġcontr ar
Ġreconoci das
jec t
Ġde ton
ac Ã¡
ĠFin an
th am
Ġllam as
ĠJer ez
Ġ Ø
ĠCas s
Ġfus iles
Ġsa grado
ĠPol ÃŃticas
ĠLuxem burgo
D P
G a
c ci
ĠMe tropolitano
Ġeduca tivas
Ġbas an
ĠGo ya
Ġleg itim
es pa
Ġex termin
ĠcaracterÃŃs ticos
ĠGol den
Ġfib ras
ĠS ap
ÃŃn dr
Ġreci bÃŃa
G M
al to
Ġtan tas
ĠTab asco
ĠIn ca
Ġgran o
ĠVi ol
ĠJ en
Ġexcel encia
ĠH era
Ġla va
Ġse cular
ĠSe is
V illa
in do
Ġcons entimiento
quÃŃ es
Ġexig iÃ³
ĠSea ttle
! ",
ĠW u
Ġcier ra
Ġe rupciÃ³n
Ġpes etas
Ġafric ano
Ġp ig
tos a
ĠrÃ¡p idos
R P
Ġmortal idad
Ġaccidental mente
ĠAr senal
g ru
h im
ĠPiz arro
Ġto x
Ġagu jero
p m
ĠW ind
Ġsin cron
Ġsens or
Ġtop Ã³nimo
T anto
Ġins tante
Ġcal ibre
car as
ĠSil ver
ĠS pace
ĠEd die
z aron
Ġg lor
ens as
Ġban deras
Ġcomen tario
ĠJo y
ĠbÃ³ve das
Ġsubespeci e
e urope
ĠS E
Ġubic an
Ġartes an
Ġbombar deos
ĠTech n
Ã© ci
Ġfinaliz a
Ġc aba
Ġsospech a
Ġg loria
ĠEuro visiÃ³n
Ġen o
ĠL GB
ra ciones
Ġar cilla
ĠEsta tuto
Ġb ul
ĠV ila
me dio
ĠAmb ros
ĠÃļ l
Ġdisminuy e
Ġac entu
Ġpion eros
cu sa
anz er
ĠL ec
Ġven ido
Ġvesti r
Ġaux iliares
al les
Ġas pi
Ġperpe tu
f utbol
Ġlanz amientos
G I
ĠM uerte
g ador
f ÃŃsica
ti cismo
Ġinici ando
Ġdiscu tir
Ġgobern adores
Ġcuad rang
z io
tros pec
Ġregistr ados
Ġimpuls ar
Ġfin anzas
ĠobstÃ¡ culos
ĠCar rillo
Ġconstru yendo
ĠLa u
ton al
Ġins ur
Ġanim ados
mit as
Ġdul ces
tor i
Ġcomun as
ĠCl inton
Ġconces iones
Ġcos tes
ĠPe tro
Ġbaj ar
Ġs ien
Ġas tron
ĠAm biente
Ġreele cciÃ³n
Ġa ri
blo que
ĠClas e
Gra cias
Ġmejor Ã³
ĠB ud
bur n
e Ã±os
ĠPla te
o ke
Ġgar ganta
te ms
Ġv ano
Ġencabez Ã³
ĠCO VID
zob is
ĠBea u
To das
gr Ã¡
Ġ184 6
ĠO ver
man uel
Ġampl itud
ĠtÃ©rm ica
ĠSpr ing
Ġpi diendo
ĠintÃ©rpre tes
Ġenz ima
Ġagre gar
Ġin curs
ĠG ior
gon Ã©s
X X
Ġh omo
Ġtro pa
ĠSte in
Ġmen tales
Ġmens ual
el s
Ġpres bi
ĠAl ar
Ġco her
cul tural
ĠWa gner
tr ab
ĠdÃ© fici
Ġquer er
Ġeros iÃ³n
ĠD od
ĠG ijÃ³n
Ġflu ido
im b
rad u
Ġbi olÃ³gica
Ġrom Ã¡ntico
Ġama teur
ĠCÃŃv ica
s ub
ĠAr k
ĠQue ens
Ġb allet
Ã©r cules
e ar
ĠR ese
Ġegip cios
Ã± era
ĠM uy
ĠK urt
Ġcontin gente
Ġlanz ados
ĠBo tÃ¡n
ĠAmaz onas
Ġpin tÃ³
Ġgri egas
Ġreca udaciÃ³n
ĠUS D
Ġlabora torios
Ġe dades
Ġimp ide
Fran cia
Ġresiden cial
Ġfilo gen
on Ã©s
ĠD ante
Ġterc eros
Man uel
x os
Ġoper adores
Ð ²
Ġel ef
Ġse da
col ate
Ġcolo caciÃ³n
ĠM ÃŃ
Ġh indÃº
ĠA viaciÃ³n
Ġmar g
h ibe
ĠB ac
ana to
Ġun Ã¡nime
ĠP ul
Ġdeclar aron
an dr
Ġesta mp
ĠSan d
Ġacer carse
Ġneer landÃ©s
Ġinesta bilidad
ĠA quel
ve do
Ġcolec tivos
ĠBob by
ante Ã³n
ĠhÃ¡ bitos
ĠNe vada
Ġpor tÃ¡
Da vid
ĠP ed
ĠT Ã¡
G N
Ã¡ culo
ol la
hua tl
ĠcÃ¡l culos
ĠLib ia
ĠRepublic ano
Ġsindica to
Ġeconom ista
Ġespeci alizadas
Ġpal o
Ġflu vial
ĠTar ragona
Ġlegisla tivas
ĠK os
Ġpol i
Ġve la
ĠHor as
Ġep iscopal
cu atro
ian i
Ġcro ata
Ġfarmac Ã©u
T unes
Ġgu iones
Ġab usos
Ġtraslad ar
Ġmac ro
ĠM iles
cor ro
Ġmar gin
Ġguar di
con o
ĠGÃ©n ova
ti Ã©ndose
Ġmun iciones
Ġenamor ado
ĠAcadem y
Ġimper iales
Ġch asis
Ġdestru idos
z ona
Ġimpor tar
Ġb ole
ĠRom an
Ġileg ales
u ka
Ġsal arios
Ġpers as
zco a
om ar
Ġinde fin
de f
Ġdel la
Ġincre ÃŃble
ĠLa ke
Ġadul ta
Ġtemp lado
ĠEn d
Ġvesti dos
chill erato
ĠSÃŃ dney
Ġmedi ciÃ³n
w eb
ĠL anz
itar ra
ĠCrim ea
z al
Ġesplen dor
ĠCa iro
Ġsuperior idad
ĠCas i
Ġejecu tados
vel and
d Ã¡n
Ġdi misiÃ³n
gÃ©n ero
Ġbizan tinos
ĠE usk
ig ma
Ġtrabaj aban
Ġvic torios
in f
ĠL igas
Ġpo table
cri pciones
Ġpoten ciales
ĠLeon or
ĠVel Ã¡zquez
ĠG ay
Ġfra y
Ġautom Ã¡tico
Ġdiscu siones
Ġcoron aciÃ³n
Ġob rero
ev elt
ĠdÃ© biles
H S
Ġnub es
is ca
Ġse ts
Ġmil enio
ĠDef ens
Ġpendi entes
Ġmun dos
an ge
tu la
ĠM S
Ġca ta
ĠkilÃ³ metro
ĠÃ¡ l
ĠZa ca
Ġtor mentas
Ġimpuls ado
Ġimple mentar
cos ta
Ġsuce der
Ġcostarric ense
n eros
Ġm itos
ĠD og
Ġinform Ã¡tica
ĠRiv adavia
Ġlocomo toras
R T
Ġmar tes
Ġaten tados
Ġretorn Ã³
Ġres olviÃ³
ĠCol on
ĠChar t
ĠCatal unya
ĠMal ta
Ġde cep
Ġc rio
ĠP eso
ĠCom pu
Ġdispon ibilidad
Ġtriun fos
Ġabaste cimiento
ĠB ronce
ĠMar i
Ġinfluy Ã³
E di
S il
ti op
Ġincl inaciÃ³n
cos o
ĠdomÃ©s tico
Ġhomosex ual
contr ol
Ġ183 8
ĠMonten egro
Ġtendr Ã¡n
Ġinteg ridad
ĠEsco bar
Ġp Ã¡l
un try
Ġrecono cen
O b
Ġf use
im ir
Ġcru ceros
ĠBr un
Ġdesconten to
qui diÃ³cesis
ĠÃ©tn icos
Ġvi vieron
Ġconec tar
Ġdiplom Ã¡tica
conoci do
ran ge
ĠCaball eros
ĠTelevis ion
ĠH ues
Ġac antil
ĠEl ÃŃas
Ġres urg
ĠMc K
ĠBos que
Ġtam bor
Ġestable cÃŃa
Ġquer ido
Ġman to
Ġro dilla
al das
ĠGi useppe
ĠA ya
Ġj us
Ġdoc entes
Ġdes igna
ĠMo ham
Ġgobern ar
Ġpatrocin io
iber ia
Ġinform ar
Ġveter anos
Ġdes venta
Ġemble ma
Ġtrans mit
Ġneg aron
Ġ183 7
Ġarbi tr
Ġsal sa
Ġtransmi tida
burg h
Ġselec cionados
Ġgalle go
Ġespor Ã¡
ĠT hat
Ġcam iÃ³n
ĠC Ã¡n
Ġdenomin an
Ġclim Ã¡tico
di ando
Ġlim itar
Ġhis torio
ĠseÃ±al an
Ġtra taron
ĠTur ÃŃn
Ġexplo tar
ĠCons ul
ĠÃŃn tegra
Ġtro feo
L N
Ġinv ern
ĠHu a
Ġautom Ã¡tica
Ġvac ante
tu alidad
ĠMargar et
Ġen cam
Ġfel icidad
ĠKir k
z uela
ĠAm Ã©ricas
Ġparlamen tarias
ĠSant ÃŃsima
Ġsemin ario
e amiento
ĠN iger
Ġposib il
Ġb lues
Ġofre cido
Ġayud ando
Ġcon dados
Ġco dice
Ġrefer ido
Ġhallaz go
Ġin al
ĠCar d
ĠâĢĭ âĢĭ
B en
Ġfru ta
par se
Ġ184 4
G ar
n eo
ĠNor mal
Ġdespe dida
Ġmatrimon ios
Ġvincul ados
ipÃº zcoa
Ġve cinas
Ġsome tidos
Ġn as
Ġprotagon ismo
Ġes tancias
Ġhu Ã©rf
Ġescas as
Ġnoven a
Ġmaci zo
Ġa dos
Ġtr ompe
Ġreconoci mientos
Ġsuble vaciÃ³n
Ġfemen inos
Ġvuel tas
ĠEvangel io
Ġc eb
Ġcon vic
20 19
ĠEx press
ĠAdol f
j in
ĠacÃºs tica
ac ol
Ġvari ados
Ġde grad
ĠS pen
Ġdistingu en
Ġcere ales
ĠR un
ĠSe p
Ġnom inaciones
Ġprop ici
Ġecos istemas
U R
Ġe go
Ġi ones
Ġesta mos
g et
r ino
n istÃŃa
Ġdistribu ido
Ġclar os
Ġcompa trio
tu l
ĠStar k
Ġpara je
ff in
tan to
Ġmoder ado
Ġargumen tando
Ġgener an
Ġle ales
Ġburgu esÃŃa
Ġpreocu paciones
Ġcon desa
cam pista
b aron
Ġcar naval
Ġayud an
Ġdisc ÃŃpulos
Ġcre cido
Ġedi tores
U P
Ġc esiÃ³n
An tonio
Ġsecre taria
S E
ir as
Ġ182 6
Ġconsecu tiva
ito l
Ġrecom pens
Ġelimina toria
Ġd ados
Ġ12 00
Ġfortal ecer
Ġcau tiv
Ġrecopi laciÃ³n
ĠHud son
Ġre qui
Ġconf ig
ĠDan ny
V ol
Ã³ ma
is tieron
Ġcre ÃŃan
Ġdestac aron
ĠaÃ© reos
Ġinno vador
Ġcu bren
ĠPolit Ã©cn
Ġe j
Ġr aro
Ġincon ven
Ġrecog ida
Ġsar gento
ĠvÃ©r te
Ġes til
ĠBer k
Ġdiri gen
ĠmÃ¡xim os
gen da
Ġmater i
Ġcompar ado
ĠJuven il
ĠL iz
Ġdispon en
Ġdu quesa
rue ba
ĠmarÃŃti ma
n ica
Ġb las
lar d
Ġprodu cÃŃa
ĠSer ra
g ger
Ġconven cido
media tamente
ĠPas tor
Ġ184 1
Ġpatriar ca
O s
ĠP onte
ven tura
ĠA T
Ġbre ves
ĠStu dio
Ġha za
Ġcapital ismo
Ġcon fer
Ġcab les
Ġcontrol a
A p
C abe
Ġtermin ales
Ġase me
F lor
l era
iv an
ĠJ usti
Ġmedio dÃŃa
Ġtradu cir
Ġcampan ario
Ġsenti mental
ĠD uero
Ġfil mes
Ġacces ible
ĠAristÃ³ teles
ĠSin dica
Ġlig ado
I NE
Ġj uda
ĠPa tagonia
rie to
trop ical
Ġtecl ado
Ġinmue ble
Ġenf ri
ĠK ol
Ġalimen tan
Ġ ×
ve t
ĠEx pe
Ġmor tales
Ġdefien de
ĠCompos tela
am u
Ġinform ado
ĠcadÃ¡ver es
ĠR id
to ck
Ġdes gas
Ġanti se
de le
Ġp icos
Ġmin im
Ġproce diÃ³
in antes
Ġtraslad ada
ĠVir reinato
197 6
ĠGil bert
Ġun ificaciÃ³n
Ġreg lamento
Ġmens aj
ĠJug Ã³
Ġ ).
cri ta
Ġinclus ive
Ġcil ÃŃndr
ĠGue vara
m ara
Ġmejor ado
Ġdecor ado
Ġbailar ina
ĠH onda
Ġinten tado
Ġocul ta
R adio
Ġa zar
Ġmor ales
ĠpÃ¡r roco
ĠK h
C entro
h ip
en es
Ġcu ota
ver g
Ġcamp anas
Ġexcep ciones
N O
Ġe usk
Ġdes orden
ĠMich o
ĠHein rich
F I
Ġsegura mente
Ġdescri pciones
Ã¡s quez
ĠEn seÃ±
ĠAl pes
ĠpÃ³s tu
C os
ti mos
ĠS tory
ĠMo delo
col a
ir d
Ġaquel lo
Ġantepas ados
Ġtermin arÃŃa
Ġsir viendo
ĠTom my
Ġinn umer
Ġra b
Ġfa chadas
ĠAc adÃ©m
ĠPal encia
ĠT un
Ġa tro
Ġvari ada
C Ã³
Ġh ex
ĠL t
tin al
Ġmon je
Ġdefens ivo
c ario
f ÃŃn
Ġinteg ran
Ġpresi diÃ³
H iggins
iv al
Ġr ondas
Ġni trÃ³geno
Ġfra cciÃ³n
Ġvig encia
tiop ÃŃa
Ġmuel le
Ġv ÃŃs
ix on
ues to
ĠCla ude
Ġcomprendi do
u ke
uer tas
g rupo
Ġcorpor aciÃ³n
ĠR h
ĠCa tar
Ġcu anti
Ġconserv adora
Ġadmi te
Ġpartid ario
Ġseg reg
ĠL lu
Ġtransmi tiÃ³
Ġempe or
r ing
Ġcris tales
Ġmencion an
Ġheg em
Ġaf uera
Ġayud aron
ĠPatr icia
Ġlegis l
Ġcen a
W al
Ġpar Ã¡s
ĠI m
Ġprepar Ã³
Ġrap idez
R am
e j
ĠM A
Ġanar quistas
ĠRoos evelt
Ġal mas
mas ter
in ario
Ġsal ido
ĠPro gres
L ou
Ġorien tada
Ġsum amente
Ġju icios
197 9
Ġf ec
ĠCh ecos
ĠCon cor
Ġemig raciÃ³n
Ġcontemp la
Ġconquist adores
Ġolvi dar
ĠW it
Ġsub ordin
C asa
F in
di ci
Ġh ig
Ãº mero
ĠLud wig
tiemp o
ĠY am
ĠmÃ¡ gico
Ġopera tivos
Ġmi Ã©rcoles
ĠPar ejas
umen tales
Ġ184 3
Ġnovel ista
Ġcurs Ã³
Ġprosper idad
Lib ro
Ġsus ci
ich a
z ig
ĠEx tra
divers idad
Ġso p
Ġestre ll
Ġbicicle ta
Ġinmor tal
Ġsime trÃŃa
quÃŃ mica
Ġhi erba
im es
Ġmon jas
pti les
ĠMon taÃ±a
Ġpin tar
ĠGeorg es
ĠLa tin
Ġincom ple
Ġper d
Ġcau ce
Ġveter ano
Ġba chillerato
tt y
Ġemple Ã³
Ġnorma tiva
T rans
ĠD ri
Ġofre cieron
Ġpl ural
ĠquÃŃm icas
Ġpar to
ÃŃn ica
Ġllev arse
Ġin dem
ĠpolÃŃ ticamente
ĠPal ermo
Ġdra mÃ¡tico
Ġp ea
Ġre lan
ide a
ĠGu ido
Ġaus ente
Ġde grada
z am
Ġl on
Ġexitos os
ĠJama ica
Ġ *
ĠSong s
Ġal za
Ġdomin ar
ĠR Ã©gimen
Ġapo dado
Ġinvas ores
Ġfacil ita
ĠCam peonatos
Ġmes o
ĠMich elle
ĠLar ry
J ug
ĠHuel va
u gu
ĠÃ³ peras
Ġrefle jo
Ġcomand antes
din Ã¡mica
is m
Ã± ones
ĠR C
Ġejecu tivos
Ġs un
es taciÃ³n
ca u
ĠF BI
Ġestruc turales
ren o
Ġcrea tivo
w ing
x e
ĠSum mer
te ctor
ĠF igh
ĠV ern
ion ismo
bier ta
Ġnar iz
198 1
197 3
Ġhi to
Ġretras o
ĠLÃ¡ zaro
u ki
al th
Ġmagn Ã©tico
ha i
Ġadap taciones
Ġelev adas
ĠM itre
Ġpresen tados
Ġautor izÃ³
ĠÃ¡n gulos
Ġdomin ado
ĠG ene
ĠBun des
ĠCal vo
ĠSec und
ĠPho enix
ĠI o
Ġab rup
tÃ¡n eo
ĠComp lu
in us
Ġto caba
Ġacab aron
ĠCarre tera
Ġm ales
Ġpr Ã³logo
Ġatle tismo
Ġab ren
ĠAn ÃŃbal
ĠZ en
Ġpromo tor
Ġfuncion an
ĠHum berto
ĠCh al
ĠMÃ© rito
ÃŃ metros
Ġlig ada
Ġtradu jo
ĠS ad
tiv ismo
Ġclar as
ĠQu iro
ĠtÃ³ x
Ġrin diÃ³
Ġdefin en
Ġextra er
Ġinteres Ã³
Ġestr Ã©s
tor rique
amil itar
Ġrefuer zo
ri er
Ġtitular idad
Ġinfra estructuras
g no
ĠP ea
Ġesp ÃŃritus
Ġtex tura
Ġasign aciÃ³n
an ie
ĠNa tal
Ġdesemp leo
ci es
Ã© ticamente
Ġconec tado
Ġconden Ã³
Ġregu la
Ġa erop
Ġgra cia
ĠCo fradÃŃa
AR C
Ġvil lano
J u
ĠA bierto
ĠD S
Ġsen tidos
Ġarque olÃ³gicas
Ġf idelidad
Ġal men
Ġma tor
Ġrefer entes
Ġsom brero
gu en
Ġtras ero
Ġre pro
Ġcine asta
Ġ182 9
Ġhe ter
Ã¡ menes
ĠNa turales
Ġdocumen tado
ĠCh in
Ġ9 1
Ġfuse laje
ĠB est
Ġ16 00
Ġinvestig adora
n ado
Ġre trans
Ġcon cer
Ġh Ã©
ib ol
Ġimp ed
Ġprofun dos
famil ia
ĠIn vi
Ġvincul ada
Ġrobo t
ĠL em
ĠUn ion
uy o
Ġfas cin
c ensiÃ³n
Ġe re
ĠH olo
ras h
ĠDeclar aciÃ³n
ĠNew ton
Ġcruz ada
Ġsang ri
Ġprop Ã³sitos
ĠCo a
7 00
Ġequi vo
au tor
Ġdor mi
ĠTÃ©cn ico
Ġdiscur re
O ne
T ur
Ġp uls
ano va
Ġaman tes
ic om
ĠD res
vi table
ul f
ĠLu cio
ĠCoop eraciÃ³n
ĠRese arch
ĠA L
Ġadap tada
ĠMemor ial
ĠSer ena
Ġf ina
Ġllam aban
Ġreci bidos
Ġrevel ado
Ġcau dillo
Ġcl Ã¡us
be ta
ĠRog ers
Ġan tagon
Ġtra e
Ġrevolucion aria
Ġreba u
Ġafron tar
Ġba ila
Ġsatis f
Ġprom ueve
rec tamente
ĠautÃ³ cton
Ġun idas
to es
ill ado
k os
if orme
Ġmon tar
Ġesp ir
fac tos
Ġincremen tÃ³
ĠT ipo
aj ones
Ġra cial
Ġl Ã¡p
Ġmal o
end s
ĠW y
Ġlis tado
eo ple
Ġametrall adoras
Ġentre gas
Ġescol ta
G re
Ġtabl ero
futbol ista
ĠEs cor
ĠH og
Ġas ciende
Ġle v
Ġha ciÃ©ndose
Ġdenun cias
Ġch is
Ġju bi
Ġpan tallas
Ġpersegu ir
Ġre velaciÃ³n
Ġprome tiÃ³
ĠRiv as
Ġsalv Ã³
ĠU NAM
Ġsegu idos
Ġvari adas
Ch ris
Ġh tt
Ġpre vista
Ġi Tunes
ĠÃ ĳ
fa vor
Ġpens ando
Ġrepresenta ban
Ġreno var
R oll
ĠJ Ãº
ten siÃ³n
ĠJul ie
bÃ³ lica
Ġhue co
Ġacord aron
Ġle ones
ier re
Ġgeo grÃ¡ficas
Â» "
Ġdispu taron
Ġconce de
ĠLGB T
Ġm adres
der n
eg al
Ġporta aviones
Ġcaci que
ol ar
Pre mio
Ġcompens aciÃ³n
F ern
Ġin tu
ĠW en
Ġlic enci
Ġdescen der
c entes
al di
ĠBo x
ĠP lu
ĠUN ESCO
Ġisl Ã¡mica
Ġvas os
Ġrenombr ado
R ed
ĠT ang
Ġ18 16
Ġdebu tar
um an
Ġser bio
Ġpes cadores
Ġe tim
Ġemp eratriz
Ġsobr ena
Ġamino Ã¡
ĠPri mo
Ġcen izas
Univers idad
V arios
Ġf ur
Ġcer tificaciÃ³n
Ġcompa tible
Ġatraves ar
Ġrestaur ado
Ġ" ,
Ġpol o
ĠVi Ã±a
Ġcircuns cripciÃ³n
ĠUri be
ĠNiger ia
Ġhu ida
Ġmonstru os
S ur
ĠE tiopÃŃa
qu iza
Ġcomun ismo
Ġabor ÃŃgenes
Ġdes pro
Ġher b
Ġense Ã±a
Ġd uros
tar iamente
Ġdis ol
Ġanti cip
ĠAd ven
ĠOl i
ĠLor ca
ĠGir ls
Ġpose ÃŃan
Ġher mandad
ĠMu hammad
ĠfÃŃs icamente
Å ¾
es tro
' m
ĠS par
197 5
ĠAlban ia
U A
di dad
ĠHa itÃŃ
Ġeleg ante
ĠCor rea
ĠSa k
Ġinvi ta
ĠBel Ã©n
Ġtard ÃŃa
Ġmin ia
Ġ9 4
Ġele va
rÃ³ polis
ĠdÃ© cima
ĠH uerta
Ġ10 1
Ġaflu ente
te lo
ĠUr ban
Ġsus cep
ĠO brero
Ġsal idas
Ġrefle jan
ĠCle veland
ĠInma culada
Ġsim Ã©
Ġ183 1
ĠBrook lyn
Ã³lo ga
Ġpens amientos
Ġdispar Ã³
Ġen glo
Ġparo dia
Ġmotiv Ã³
Ġdemues tran
cu m
ĠD ub
Ã¡c tica
Ġproce der
Ġaristo cracia
Ġpa to
ĠRo th
ĠRes istencia
Ġinflu ido
Ġproteg idas
ĠPala cios
Ġapropi ado
Ġum bral
enha gue
f ue
Ġprehis p
Ġc aliza
Ġtitu lares
ĠDie z
p ri
Ġcon cil
ĠV es
Ġcapaci taciÃ³n
Ġafi cionado
Ġsu curs
aj al
Ġpis cina
Ġinciden cia
Ġ182 8
Ġb ola
ĠAl bum
ĠVen gadores
ea t
Ġconstitu ir
ĠacompaÃ± ar
Ġpropa gaciÃ³n
discip lin
col ar
ĠE t
Ġarch i
m ÃŃn
Ġmon Ã¡rqu
Ġdispers iÃ³n
Ġimplan taciÃ³n
Ġinnumer ables
qui al
Ġcal cio
un idad
Ġk ilo
Ġocup ados
Ġsupon er
Ġrese Ã±a
ĠS iberia
Ġpu ri
Ġnav ÃŃos
ĠLin ux
igu illa
Ġoper an
Ġapoy ada
ĠVi toria
Ġhered Ã³
ĠP rieto
Ġr usas
ĠA ero
ĠD ia
id urÃŃa
Ġch im
ĠCar ras
ĠMo tors
dad ura
197 7
Ġcombusti Ã³n
ĠM iembro
Ġdistin tivo
Ġadmi raciÃ³n
B ur
Ġnatural ista
Ġatribu ido
Ġmercen arios
Ġconden s
B ra
ĠAl iados
Ġcomp rim
Ġexp uso
T O
ij i
ĠH os
Ġinstal ada
ĠTer ra
Ġabre vi
cion arios
ĠUn esco
ĠAr zobispo
Ġra cha
Ġhidro elÃ©ctr
Ġcam inar
Ġman dar
ĠCam paÃ±a
Ġfil ip
Ġcron ista
C V
ĠM I
Ġcor do
Ġir landesa
ĠgÃ³ tica
F S
rim as
Ġtra tarse
ĠAm y
ĠDo Ã±a
Ġdesgra cia
Ġfavor itos
ĠWil d
Ġapo geo
Ġrepor tÃ³
ĠScien ce
Ġman dos
br ado
ti erra
ĠDu cado
ĠÃ Ĺ
Ġsimil itud
Ġex hib
la g
ĠH MS
Ġadministr ar
Ġy ar
Ġsu doeste
ĠmÃ© rito
Ġllan uras
Ġter cios
Ġtripul antes
e i
r ara
Ġpi dieron
Ġmol es
Ġperu anos
Ġasi Ã¡ticos
M ag
b ores
Ġpro cl
ĠT ama
Ġgran ito
Ã¤ n
i Äĩ
ĠRa chel
Ġsustitu yendo
Ġsubsi di
ĠF l
Ġro bÃ³
ric e
Ġperman eciendo
Ġprotagon izado
ĠSol ar
ĠNan cy
Ġba Ã±os
uda dela
cien das
197 0
Ġcontrar res
H C
ĠF alleciÃ³
ĠPar ra
Ġadyac entes
197 8
ĠTerri torio
Ġin tim
ĠEn car
Ġab us
im entaciÃ³n
ĠLlo yd
C W
d ones
ĠEl lo
Ġdesarroll adas
Ġbe ber
ĠEuro copa
ĠComun icaciones
Ġprove er
sig lo
Ġde ro
ch igan
Ġpresen tadora
ĠÃ³ leo
Ġbolivi ano
ol s
ten o
Ġmic rÃ³
D ire
ĠL enn
Ġtradu ce
ĠRum anÃŃa
Ġargen tinas
Ġco fradÃŃa
ĠSal as
Ġla ure
Ġviol aciones
Ġaplic Ã³
Ġmodific Ã³
ĠF lash
ĠPer eira
Ãģ n
Ġali anzas
ĠE z
ĠK at
ĠIn quisiciÃ³n
ĠMan n
ĠPr incesa
ti p
ine os
ĠV ista
Ġale jado
Ġregistr aron
Ġ( âĢĺ
Ġdar Ã¡
Ġconcl usiones
Ġprestig ioso
Ġconsa gr
Ġhuy eron
ĠC un
ĠEstad ÃŃstica
Ġpais aj
Ġhumil de
Ġcar idad
Ġpas ada
Ġsubespeci es
ĠMaximil iano
ĠL ane
Ġdi Ã©sel
Ġinf antes
ĠNo t
ĠtÃ¡c tica
Ġtoler ancia
Ġlegen dario
Ġinter valo
Ġasign Ã³
Ġc is
Ġde fecto
ĠT ales
ÃŃcu las
id an
cri biÃ³
ĠIs landia
Ġesp inas
Ġejecu tiva
Ġef ÃŃm
ĠComplu tense
ĠM Ã³nica
Ġrecur rir
Ġcorri endo
Ġefectu ar
Ġmanio bras
Ġpo dio
Ġgrab adas
ĠViv ienda
z or
ĠG reat
bern ador
Ġdibuj ante
Ġedi tada
Ġcres ta
tura ciÃ³n
Ġderiv adas
Ġesca pÃ³
re b
Ġsin Ã³nimo
ĠMe lo
Ġestruc tur
ps ia
ĠVice presidente
bi era
Ġdeclar ando
Ġcolo cada
Ġobten ida
Ġguer rero
Ġmodific ada
Ġro ble
ĠLiber tador
Ġenorme mente
y le
Ġsal ones
v ÃŃas
ro e
Ġalmacen es
Ġpse udo
Ã ½
ĠG Ã¡l
Ġform adas
Ġbar Ã³n
Ġhar ina
Ġcu Ã¡ntica
Ġestima ciones
ĠS pa
ĠG y
ĠBa ker
ĠAr enas
ĠHer bert
Ġpermitir ÃŃa
u te
ĠP ine
ĠRepublic ana
Ã©ci men
Ġperman entemente
Ġmag na
ĠLen gua
ĠCh allen
Ġher edi
Ġaplic ada
Ġpele ar
Ġneu tral
ĠautÃ©n tico
Ġla menta
tar iado
ĠSie mpre
Ġex futbolista
Ġcru ces
Ġmascul inos
Ġaline aciÃ³n
Ġmonopol io
qu io
ĠEs pec
Ã©s tor
ĠVal de
ĠDel ta
Ġsor teo
ĠElec tr
Ġin vo
Ġg am
Ġaman ecer
ĠIngen ieros
Ġmar ineros
fa ce
Ġe rÃ³
Ġpromin entes
Ġmani pulaciÃ³n
j Ã¡n
m all
Ġintrodu jeron
ĠDire ctiva
Ġguer rilla
Ġalcal des
Ġelabor ada
Ġmelo dÃŃas
ĠDe uts
Ġni Ã±ez
Ġale da
ĠVol ks
Ġatribu tos
Ġorien tado
Ġsobr ina
Ġlic encias
ĠBene di
Ġre ptiles
Ġpar amilitar
Ġan ciano
Ġpres tÃ³
Ġbas ura
ĠHere dia
ĠAl co
M edi
s ton
Ġs ombr
is ario
Ġvar Ã³n
Ġve ÃŃan
Ġesp Ã©cimen
ĠOri entales
g ne
Ġc emento
co urt
Ġpura mente
Ġselec cionada
Ġhos pe
Ġconoci eron
Ġcontin entes
Ġbar es
Ġexplor ador
Ġtraspas ado
f irm
ĠAy ala
fun dador
Ġcu br
ies a
Ġfra iles
r ina
ĠacompaÃ± amiento
Ġtecn olÃ³gico
Ġconcep tual
Ġrecom end
Ġpolici ales
Ġparaguay o
Ġprecurs or
ĠPu ig
ĠdÃ©fici t
Ġinf i
ĠDes a
Ġdirig iendo
Ġsustitu to
Ġadmi tiÃ³
Ġestad ios
ĠsÃ³l idos
ve d
Ġinfec ciones
ris tas
hi la
Ġecuator iano
ĠpÃ¡jar os
tal os
Ġsal vador
Ġcontribu ido
Ġanar quista
in go
p est
Ġdes ciende
Ġgen Ã©tico
ĠVill al
Ġdial ectos
ĠW alla
Ġvis itado
Ġvendi eron
Ġcaptur Ã³
Ġpro hÃŃ
Ġcoinci diÃ³
Ġrelie ves
Ġl ana
Ġa ur
Ġen laz
Ġinv is
Ġutiliz arse
ĠMicho acÃ¡n
qu ÃŃas
Ġalien ÃŃgen
ĠK ane
Ġdesapar ecidos
D O
V P
la ta
gun da
ĠAs i
Ġpla cer
ĠLu ke
Ġrom Ã¡nico
Ġarbus tos
pos terÃŃa
bl ado
ĠTe ologÃŃa
Ġenter arse
Ġestatu tos
Ġy ou
ĠP enn
ĠG ig
ĠU K
Ġlig eros
Ġapre cia
Ġad vierte
Ġpul mon
ĠEmpres a
am pa
Ġanex iÃ³n
Ġcompres iÃ³n
Ġsu aves
Ġch ip
Ġsosten ido
Ġavis o
Ġdesper tar
Ġn Ã¡
ĠPas Ã³
Ġinterme di
Ġmin orÃŃas
Ġesper aban
Ġais lado
ro v
Ġre utiliz
ĠCh ico
Ġcon formaciÃ³n
ĠRol and
Ġbus caban
ĠEs tero
ĠCom ando
ĠIb Ã¡Ã±ez
E m
Ġno tor
cien den
Ġtram pa
Ġlu jos
Ġredu ciendo
Ġbal ne
Ġemig rÃ³
Ġhuel las
Ġagrad able
ĠpirÃ¡mi de
ĠH ad
Ġmedi ana
Ġarri es
Ġeusk era
Ġs ales
le e
Ġ18 17
Ġah og
Ġcru cial
g il
Ġcu Ã¡
Ġescri bieron
Ġsur real
Ġdenomin arse
Ġcuan tos
Ġsofis tic
ĠD ul
Ġla gar
ĠN ad
Ġ183 2
Ġmur ales
vi es
Ġbailar ines
Ġprogram ado
Ġpar ecida
ielor rus
ĠC M
Ġdespl iegue
ĠLu go
Ġrepi te
- "
ĠG au
Ġnu p
ĠEs tÃ¡n
ĠU tiliz
T ele
res pon
ĠPe pe
Ġ4 50
ĠFor ce
Ġproclam aciÃ³n
al s
ĠA less
Ġd anzas
ĠB og
Ġdecre tÃ³
ĠCastel lÃ³n
ĠPerman ente
Ġplante Ã³
Ġarre ci
ĠS ina
ĠT radi
dera ciones
ĠRe a
Ġsin t
Ġencontr adas
Ġexter nas
ĠPa co
Ġdiv ina
Ġotor gada
Ġclasific arse
Ġaler ta
ac ciones
l ista
ran d
dos a
Ġform ales
ĠCa uca
Ġinten taba
ic us
Ġo ÃŃr
ĠM P
Ġconte x
Ġcompeti dores
ĠChel sea
Ġ10 5
Ġsa xo
Ġobserv an
ĠO lymp
Ġcos m
gu ard
Ġdetec tive
Ġcor n
ĠMaur ice
ĠR ue
Ġestim ada
ĠCatÃ³ licos
Ġguerrill eros
Ġprelim inar
Ġp enas
Ġhon gos
ĠJes s
y ar
Ġcontinu aba
Ġsepar ar
aju ato
em y
dem ias
Ġsedi mentos
Ġ4 000
ĠBo hemia
Ġol or
Ġadap tarse
Ġlider ados
Ġflan co
F P
Ġdes o
tra je
ĠDar win
Mu riÃ³
ĠpartÃŃcu la
ĠLo pe
ĠMel bourne
". "
Ġbal ada
Ġin Ãº
Ġg all
Ġas tronomÃŃa
Ġrecopila torio
c ora
m uy
dr ÃŃan
ul ados
Ġser iamente
Ġpa tin
Ġexten siones
D ic
im an
ĠV arela
ĠAnd ro
ĠWar ren
Ã© taro
Ġen tornos
ĠF ilar
Ġmar ipos
ĠCon oci
Ġeditor iales
Ġunif ormes
Ġven ÃŃan
Ġsovi Ã©ticas
Ġâ Ĥ¬
Ġca zas
Ġextra terres
Ġprogres iva
ĠcÃ¡p ita
o th
Ġev ang
Ġinteres ados
ĠBor goÃ±a
Ġrena cimiento
Ġindem n
Ġj inetes
li ter
Ġine vitable
ĠLabora torio
Ġper cusiÃ³n
ier i
ud ar
Ġcomenz aba
Ġdirig irse
Ġpunta je
mon te
ĠSal va
unda tion
Ġconsigu en
Ġparlamen tarios
Ġembar cÃ³
en tino
ch in
Ġempu je
G en
Ġdel ta
ĠT ala
Ġapor tes
ĠT ienen
ul i
Ġexis tiendo
Ġso dio
Ġefectu Ã³
ĠRoll ing
j uy
ien za
Ġser bios
itan ia
W a
f s
un i
iden tes
Ġ180 9
ĠBe th
Ġoscu ras
G rupo
Ã³ lica
ĠP ris
mil itar
B l
ĠCen tenario
Ġesp esor
ic am
ĠCir cu
Ġcam peona
and re
Ġen te
ĠÂ £
Ġequival entes
ĠS ra
cen tr
F re
ĠH em
ĠVin cent
lan eda
ĠFre e
is es
ĠH Ã©rcules
Ġviol ento
Ġesca Ã±o
ĠJap an
Ġal berg
ĠcÃ³m ico
Ġmencion adas
ĠautÃ³n omo
ĠE is
ĠA ire
Ġarte factos
Do ctor
Ġproxim idades
Ġsilves tre
Deb utÃ³
Ġpar iente
Ġfa tal
z on
Ġdirig ieron
Ġcarro cerÃŃa
ĠU CI
Ġblan que
ĠCop enhague
ĠSe an
Ġsuf ren
ĠLev ante
ĠBu en
ĠQu il
Ġreta guardia
ĠA costa
Ġelim inada
ĠClau dia
Ġrepi tiÃ³
ĠI qui
ĠMar iana
ĠE quipo
ĠJ ordi
tro fe
ĠU FC
Ġque ma
ĠK no
ĠGener almente
Ġmam posterÃŃa
ĠS yl
Ġenter amente
ĠArn old
Ġautobio grafÃŃa
ĠQuÃŃm ica
za ga
Ġamb ul
Ġafric ana
Ã© mon
Ġj ar
Ġresul tan
Ġval idez
Ġpal ma
Ġreor ganizaciÃ³n
ĠManz an
Ġmay as
Ġra yo
tel l
Ġdemon ios
ac es
ĠDe b
Ġorganiz adas
ue ta
ĠG and
incl u
Ġsuspendi do
Ġretom Ã³
ĠBona parte
ĠPe p
Ġcome dias
Ġgradu aciÃ³n
Ġvendi da
Ġjura mento
B al
Ġto cado
Ġor to
Ġang usti
Ġde mar
ĠÃŃn dices
ĠS po
ab y
Ġesta tura
Ġpes te
Ġconserv Ã³
m Ã³nica
tr amar
ĠPascu a
ĠMa z
Ġsol os
Ġhem isferio
Ġan i
Ġtu b
ĠÃī ste
Ġfortal ezas
grÃ¡ ficamente
Ġsu puestos
ur do
Ġcre cen
Ġagres iÃ³n
Ġabord ar
contin ental
Ġaloj amiento
ĠM ez
Ġparti das
Ġcomple tos
ĠCan de
Ġparticip ante
ĠL et
ĠFu j
ro let
Ġvesti menta
Ġalter aciones
Ġsosten ible
ĠGeo grafÃŃa
Ġs ina
Ġr icas
Ġap unta
ĠSch war
Ġsobrevi vido
Ġ å
ga e
Ġapro bar
Ġdedi caciÃ³n
Ġrepresenta tivo
ĠGra y
Ġmin i
ĠH ulk
Ġcatal anes
Ġh ilo
ĠI ch
Ġsac ris
Ġper ÃŃmetro
ĠvÃ¡lv ulas
Ġse quÃŃa
ĠPen ÃŃnsula
Ã³ fica
ĠMur phy
ĠolÃŃmp ico
Will iam
Ġor a
ĠRe f
Ġnom inal
Cl ub
ĠBale ares
ĠChecos lovaquia
wa gen
Ġemp o
Ġaven idas
ĠP N
ĠNa k
Ġconcen tra
Ġelev Ã³
ĠMen Ã©ndez
Ġatrac tivos
dal us
Ġcentr ada
Ġconsolid Ã³
Ġcartu cho
de Ã±a
Ġofici os
Ġfich aje
Ġsalv ajes
uber t
ĠH ir
Ġfinaliz ado
F o
I X
Ġor i
oci dio
Ġco ca
Ġtu tela
nes see
Ġacab aba
ĠSab oya
ĠE ri
udo l
b ona
Ġorden adores
ĠDan ubio
Ġmec Ã¡nicos
Ġcalific ado
mp los
ĠT ris
ĠEs tonia
ĠPro to
ĠSha h
Ġlla ves
ĠRel ig
ti tlÃ¡n
vers a
Ġcorrespon dÃŃa
Ġsan ciÃ³n
Ġfre cuen
ticu t
Ġerig iÃ³
Ġso fo
Ġcel ulares
Ġaco ge
pa tÃŃa
ĠO range
ĠKn ight
C ha
or gan
Ġemp aren
cri tic
Ġcenten ar
Ġsier ras
Ġnie ta
ĠH aya
ay an
ti more
ĠRon ald
Ġenz imas
Ġsangu ÃŃn
F uer
cu ando
ĠCh en
Mu chas
ĠD oro
ĠGra ce
pa y
Ġdesapar ecida
Ġtama Ã±os
Ġlengu ajes
rup ciones
ĠarquitectÃ³n icos
ri on
ĠM ec
Ġha ciendas
Ġexis tido
Ġv ulgar
Ġal gas
Ġluch aron
Ġvendi endo
ĠUr bano
Ġpen ins
Ġconmemor aciÃ³n
ĠBry an
or um
ĠL on
Ġk W
In icialmente
ĠBel grado
ĠAu ton
erra t
pe des
Ġfinal ista
Ġarque olÃ³gica
Ġd adas
ĠTa g
Ġmanten ÃŃan
ĠU SS
me jor
Ġsub e
ib io
Ġpo zos
ĠBel lo
ĠAgu ilera
Ġquie bra
Ġv aya
bl as
cer ti
ĠV ik
Ġcar ecÃŃa
Es cuela
ĠPe te
Ġtraspas o
Ġl isto
Ġpara ca
ĠhÃŃ gado
Ġcon forma
car ia
Ġcer teza
Ġcaus aron
gan g
ĠRo o
Ġex iliados
Ġmar ro
Ġevi den
ĠEscri biÃ³
Ġprece dente
ĠJÃº piter
Ã į
Ġde tiene
Ġsol idaridad
ĠMc G
Ġcuen cas
Ġtriang ular
er i
ci ne
ĠA parte
ac t
ĠAl tos
Ġsuel do
Ġpar ar
Ġte mÃ¡ticas
Ġman anti
str ong
Ġperegr inos
Ġno va
Ġtom as
Ġmul tina
Ġais lados
Ġofer tas
cou ver
ens tein
ĠMon ts
Ġad junto
ĠR ita
El la
Ġemi tidos
Ġagu da
Ġrar amente
Ġ( '
ĠdiÃ³ xido
ce laciÃ³n
ĠHe ad
Ġmisterios o
Ġbox eo
l ib
Ã³ polis
ĠMa dero
Ġestim Ã³
ĠDipu tado
ic ologÃŃa
ĠE S
Ġcompar tiendo
Ġabol iciÃ³n
ĠS O
Ġpale on
In ter
ĠseÃ±al ando
ĠRub io
Ġcan Ã³n
cion an
Ġres um
Ġquin teto
Ġelectr omagn
ĠFerro carriles
Ġmud arse
Ġlogo tipo
Ġc itas
vi das
ĠFo undation
Ġdescubier tos
Ġex tienden
Ġgol f
Ġproce dencia
ĠG erona
Ã³l ito
ĠC I
am en
Ġatac ando
Ġmel Ã³
Ġciru jano
ĠMÃŃ chigan
tu osa
ĠRo c
C S
Ġsub terrÃ¡neo
ĠPro f
ĠAg ru
Ġreemplaz ando
ĠC rea
Ġtur bo
ĠPri ma
ĠGlo bo
do le
Ġh ombro
Ġsu man
tu arios
ĠCan ad
nes ota
ĠS we
cion adas
ura canes
Ġfr ÃŃos
ĠBer m
Ġatle tas
Ġpala cios
art ney
Ġbol as
ĠacadÃ©m icas
Ġiran ÃŃ
ien s
ĠD ro
der ÃŃas
ru dencia
Ġemp render
gres Ã³
Ġgalard Ã³n
re t
Ġemp rende
ĠNor oeste
Ġex ager
ĠRa in
Ġrepresen tadas
." "
ĠGuan ajuato
s ay
ĠMa tch
ĠDra ft
Ġequip ados
R D
Ġadop tada
Ġsolem ne
in aba
te xto
Ġca en
ion ados
ĠAu x
Ġaudi encias
Ġnor uego
Ġliber tades
Ġidentific Ã³
Ġre vo
Ġtu vieran
Ġplan ea
Ġproclam ado
ĠQuer Ã©taro
Ġb ilater
Ġan f
Ġmer ced
Ġdin am
z zi
que tas
Ġcontra taciÃ³n
ĠmÃºs culos
Ġk a
Ġconvo car
ĠCer ca
ĠPin to
ĠEdward s
ĠTecn olÃ³gico
Ġdivul gaciÃ³n
da fric
ĠI tur
Ġlin f
ĠCes ar
Ġde do
Ġdesign ada
ĠdiÃ¡ logos
al ista
Ġpos grado
Ġtele comunicaciones
N or
Ġcon tun
Ġle e
Ġsa ca
Ġcontribuy e
Ġdro ga
Ġclaus ura
ĠSpin etta
Ġingles as
Ġdi eci
Ġ18 19
Ġver anos
ĠMo to
Ġbrin dar
ĠhÃ¡bita ts
N S
V o
Ġpar ado
ĠCam ilo
Ġind ul
Ġir landeses
ĠdomÃ©s ticos
Ġelimina torias
Ġintegr ados
Ġacer cÃ³
Ġcruz ados
Ġcontribuy eron
Ġha z
Ġmas ac
ĠfilÃ³so fos
ĠLa ure
Ġliber ados
Ġbal as
Ġagro pecu
ĠSalom Ã³n
ĠV arias
Ġtan ta
Ġexpres ado
Don ald
ĠA pos
ĠG estiÃ³n
br ada
ĠDo cu
Ġcircu la
Ġrum ano
ĠteÃ³r icos
ĠF lota
Ġtele f
Ġguard ar
Ġt est
Ġres istente
ĠA dela
Ġcicl ismo
Ġplayo ffs
Ñ ĥ
Ġf ara
Ġin dia
Ġtu mor
Ġale gre
ĠN O
Ġrevel ar
Ġreno vado
y ev
Ġproyec tiles
Ġcruz Ã³
Ġinvers a
Ġb eta
Ġex Ã¡menes
Ġch inas
ĠGu ipÃºzcoa
ĠWar s
Ġmetodo logÃŃa
Ġreemplaz ada
Ġmito l
ĠBlo od
ĠColl ins
Î ¼
Ġmo dal
Ġincapa cidad
ch ua
it anos
ĠMar ÃŃn
Ġrespec ta
Ġdif unto
Ġb ip
ed s
Ġreco pil
Ġverda deros
d Ã³s
ĠEl is
ĠIn tel
Ġgu aran
Ġoscu ros
Ġcalen tamiento
ĠL lan
Ġreg lamen
Ġexplos ivos
ĠK el
196 8
ĠJohan nes
Ġterap Ã©u
ĠC ueva
197 4
Ġafirma ciones
ĠM isiÃ³n
ĠL lam
Ġtrans i
le d
ĠAn t
val do
197 2
Ġalco h
Ġpreserv aciÃ³n
Ġre pel
tam bul
Ġapoy aron
ĠdesempeÃ± ado
Ġal mo
Ġdedi car
Ġelev ados
ĠF idel
Ġu va
ĠMas ters
Ġhere dera
Ġsex ualidad
ĠSud Ã¡n
Ġdepen dÃŃa
Ġbombar deros
ĠNa than
ĠR Ã³
Ġan tic
Ġre car
Ġdescendi Ã³
ĠHill s
Ġher man
Ġenem igas
Ġmix to
ĠfÃ©r rea
ĠErn st
Ġpres ta
Ġnum er
ab lanca
ĠB lues
iz con
ce do
Ġhor no
Ġdedi can
Ġobserv ador
Ġdi d
h Ã¡i
ĠRa il
mon s
land s
Ġfij Ã³
ĠAdi cionalmente
ĠV on
Ġens an
n on
Ġqued arÃŃa
u o
ĠG lor
ĠUn ida
ĠAl mirante
Ġcomple tas
rea k
Ġarque ologÃŃa
on omÃŃa
boro ugh
Î º
Ġad vocaciÃ³n
ĠBras ile
Ġvolun tario
ĠSha w
Ġrenov Ã³
Ġjesu ita
ĠBow l
htt ps
vor os
Ġcri ado
ĠfÃ¡rma cos
Ġrepar aciones
Ġcircuns tancia
ĠTelevis a
Ġinter media
ĠGre y
ĠRal ph
Ġcomple mento
Ġesco gido
O l
Ġun ÃŃa
ĠE mer
Ġdegrada ciÃ³n
Ġcu Ã±ado
Ġpres um
ĠGra cia
Ġcom a
ĠW he
ĠMar tha
ĠPa p
ĠOn tario
Ġdes favor
Ġdesn udo
Ġcumpl ido
f ren
por tivo
Ġrecuer dan
ĠC lan
Ġcolum n
Ġpiel es
Ġholan deses
ĠB ug
enta ba
Ġten or
Ġcome tidos
ĠAt las
Ġimag inaciÃ³n
Ġhonor ario
ĠBal oncesto
ĠAlma gro
Ġl ech
ti res
pec he
ĠdiseÃ± adores
tig Ã¼
Ġges to
or ros
Ġsiste mÃ¡tica
Ġespiri tuales
Ġcam ion
ĠMo is
Ġpens ado
Ġidentific ados
Ġevacu aciÃ³n
ĠAc tu
Ġactiv aciÃ³n
Ġcompi laciÃ³n
D ra
Ġdes alo
Ġl echo
Ġequi par
ĠMad ison
Ġmedi cin
Ġemp are
cin i
Ġexig encias
Ġdorm ir
E du
ĠN Ã©stor
Ġba il
Ġcontr arre
Ġelec tos
Ġlic enciÃ³
Ãºr pura
p ino
Ġg eno
qui Ã¡
Ġna tivas
ĠLu igi
C ab
c risti
ĠG es
ĠU P
lam os
Ġsuces ores
Ġpele as
Ġreda ctor
ĠmetÃ¡ lico
c ru
ĠMar iscal
Ġven cido
Ġorganiz an
Ġadap ta
Ġavan za
tr ia
ac ar
Ġau ten
Ġmil icia
ĠBol onia
Ġcamp ana
g iÃ³
Ġin und
Ġin undaciÃ³n
ĠFran cÃ©s
Ġvalor aciÃ³n
ĠB lu
Ġmil ÃŃmetros
Ġorg ullo
Ġbarro ca
Ġse vil
Ġsu presiÃ³n
ĠL um
Ġri to
ĠFil ms
ave dra
Ġinyec ciÃ³n
Ġhistorie tas
Ġprim or
ĠCo aliciÃ³n
Ġga tos
Ġcomprome tiÃ³
ĠPers ia
Î¿ ÏĤ
ĠAvel laneda
Ġes quinas
Ġparti endo
ĠB allet
iki pedia
dif usiÃ³n
Ġcor ren
ĠB arro
ĠB ian
Ġderro tada
Ġconce bido
ĠEstu dio
Ġc ese
Ġex acto
cur sos
ĠQu inta
ĠO ak
ind ro
Ġpilas tras
ble mente
Ġras go
Ġmel an
ĠNorman dÃŃa
Ġdesl iz
Ù Ĭ
Ġfe udal
Ġcontinu ando
Ġinaugu ra
Ġoper ado
Ġcomunic Ã³
a Ã©
Ġmil ici
Ġexpan diÃ³
ter y
ĠChev rolet
le ta
Ġ( ,
Ġgener alizada
ĠCo ordin
Ġsum aron
Ġapor ta
Å Ħ
Ġ" -
Ġsal tar
Ġgen oma
Ġres titu
Ġcre ma
Ġadop taron
Ġgus taba
Ġplas ma
Ġenter rados
Ġgesti ones
196 9
Ã©p lica
Ġb es
ga tas
Ġargumen tÃ³
di g
ĠÃŃntegra mente
Ġaven tur
ĠOb ama
Roll ing
Ġv era
Ġinstitu tos
Ġdic tÃ³
ĠQu ir
Ġprevi as
Ġto tales
Ġher Ã¡l
Ġbo te
m isa
Ġs ill
me t
r entes
Ġsu bida
ig ne
Ġcan chas
Ġpe ores
rigo yen
Ġlun ar
ĠMaraca ibo
ĠCon curso
Ġcontra ata
ces s
Ġinvad iÃ³
ĠP icas
ip zig
Ġemple ando
Ġinm ensa
ĠEdi mburgo
fon s
ĠGa za
Ġamar ill
Ġconfe der
ĠG iro
Ġpres taciones
ĠCol e
Ġtranspor tes
ĠCaball erÃŃa
Ġparal elos
ĠF as
ĠC H
ĠArm strong
ĠmÃ¡xim as
Ġpuer torrique
ĠValle y
Ġagu do
Di ario
Ġtransforma ciones
ĠRe ed
ĠMon gol
Ġnove dad
tal eza
Ġenter os
Ġrep ente
Ġcl imas
ĠCor o
Ã¼ h
inter rump
da to
Ġmur ci
ĠE ul
om al
Ġorigin arios
t mo
ĠmandÃŃb ula
p ice
s Ã³
ĠPe tr
Ġtur ca
Ġvie jas
ĠEspa cial
Ġr aras
ĠW omen
ĠPie tro
Ġdiscapa cidad
ĠEscuad rÃ³n
ĠsÃ³ tano
es tr
Ġn ube
Ġdemo grÃ¡fico
Ġreli quias
lo j
ĠF rÃŃa
ens on
ĠE che
Ġi on
Ġevi ta
ĠHar old
Ġtransform ar
L iber
ĠW ang
Ġpermi ti
Ġpen Ãºlti
ĠteÃ³r ica
ti ta
til de
ĠRo tten
p istas
ĠIs ma
z h
ĠDis eÃ±o
ĠLin da
Ġinfi erno
K e
u caso
Ġ á
ĠA riel
Ġfu esen
Ġcambi an
U E
Ãºbl icas
Ġapoy ando
Ġfle cha
ĠS z
Ġt enta
Ġas ilo
Ġch an
Ġconcre ta
Ġhier bas
ĠP las
Ġref iriÃ³
ĠCan tÃ³n
Ġampl iado
ĠFo ur
Ġsobrevi vieron
Ġnoctur na
Ġestar ÃŃan
ĠS ty
Ġper didos
ĠK ab
Ġexten dÃŃa
Ġasum iendo
Ġmol ino
ĠArti gas
Ġelim inando
Je an
Ġpa gÃ³
ud ÃŃ
Ġproduc tividad
Ġdes ech
ĠU tah
ten ientes
Ġbi olÃ³gico
Ġcoman dos
Ã³ tica
Ġen amora
cion ando
cas t
Ġdependi entes
Ġgir ar
Ġdo blaje
Ġex puesta
ĠU TC
ĠO NG
Ġcontra tar
ĠTo yo
Ġproteg idos
Ġcan tos
ĠPo int
ĠJun g
ĠAr chi
ĠAn trop
Ġa puesta
is io
ĠPa t
Ġegip cia
al en
ĠRa ven
ĠIbar ra
Ã©c do
Ġesto y
Ġapoy an
ĠContin ental
ĠRang ers
Ġtrans cripciÃ³n
Ġsa tÃŃ
D R
Ãºr ich
Ġmol de
Ġtre gua
Ġexca vaciÃ³n
Ġecos istema
C ris
H en
Ġ oso
it su
ĠmontaÃ±os a
ĠRe bel
Ġintrodu cida
C olo
J es
Ġpa pal
tÃ¡ndo lo
Ġremi x
D ado
I talia
Ġpar is
Ġestal lar
f Ã¡
ĠS C
Ġinno vaciones
ĠtÃºn eles
Ġcomision ado
m illones
ĠT iro
ĠG in
ĠdomÃ©s tica
Ġ 00
ve da
Ġsoci ologÃŃa
Ġcompu taciÃ³n
Ã ¬
ĠM ing
Ġcre yÃ³
ĠLi ter
ca f
Ġaumen taron
Ġisl Ã¡mico
ĠMitch ell
fer ente
fre do
Ġsum ando
ĠW ell
Ġro to
gar t
Ġvo cab
ĠMatthe w
ĠP ira
Ġca de
ĠW an
ĠJu juy
ĠNe il
ĠT ron
Ġet no
ĠcÃº b
ĠT ir
Ġpar adas
ina ta
Ġsuf rimiento
amp ton
ĠFemen ino
Ġac ento
Ġbrin da
k ia
Ġc ac
Ġcas aron
Ġden s
Ġdifer encial
ĠSa avedra
Ġs ombras
gu ÃŃa
Ġmar ques
ĠShang hÃ¡i
ÃŃf ero
ĠAb og
Ġvin culaciÃ³n
Ġcho colate
Ġmunicip alidad
ĠlÃŃ rica
ĠNorm almente
og ue
ĠGimnas ia
ĠI A
Ã¡r se
Ġfabric ados
Ġhab itada
ĠHis pania
ĠmÃºlti ple
ĠCÃ¡ ucaso
Ġalquil er
Ã± iga
Ġor n
ĠCar denal
Ġpac ÃŃfica
Ġac trices
Ġres uci
ĠVI H
Ġmanz anas
ĠC ay
ĠG ros
ĠSa grado
tÃ³r icamente
Ġviol entos
Ġlec ciones
Ġaden tro
tho ven
L in
Ġdura mente
Ġcoordin ador
Ġmar cados
Ġsen tado
fa gasta
Ġatra pado
ĠMil an
Ġimpor taciÃ³n
Ġcolor aciÃ³n
Ġali adas
Ġpronun ciÃ³
ĠG ia
ĠAr ica
ĠAmeric ano
ĠpÃ© talos
ĠIn form
Ġco oper
Ġirreg ulares
Ġcomplic ado
ĠP ros
ul ario
tam entos
Ġselec cionar
Ġdesembo ca
O h
Ã¡ bal
ĠI ber
ĠLin ares
T ar
Ġpa tentes
Ġenten dimiento
Ġpor tadas
Ġmun iciÃ³n
ĠQuiro ga
Ġsur core
ĠRus a
Ġ182 7
Ġmovil izaciÃ³n
P P
Ù ħ
qui dos
cÃ³ mo
Ġproto tipos
Ġestad ÃŃstica
Ġfrancis canos
ĠsimbÃ³l ico
ĠCon ca
Ġpas tos
ĠAm igos
ĠPo blaciÃ³n
ĠPar ece
cu ta
Ġrela tivas
Ġinven tario
anti cismo
ĠLyn ch
ĠpÃ³r tico
p ing
in ia
le ma
ĠEn rÃŃquez
Ġprimo gÃ©n
F orm
pro p
Ġinvad ir
Ġpublic ando
Ġdes mon
ĠN ico
Ġdes ter
ac ÃŃa
Ġindi cios
ĠTh under
ĠContr eras
ĠG os
Ġjud ÃŃas
Ġvas ca
Ġais lada
Ġrestaur ada
Ġalmacen ar
Ġconte mpl
Ġinvas iones
Ġcom idas
ita t
Ġta ur
ĠFemen ina
as ÃŃ
D T
ĠK it
Ġmon tado
Ġrecuper arse
Ġmadrile Ã±o
Ġde bida
igu a
tec n
Ġgaran tÃŃa
Ã³ tico
Ġexperimen tales
ĠEsp inosa
ĠCom e
ĠHel ena
ĠrÃŃ g
Ġmorf ologÃŃa
Ġsum ado
Ġopon entes
c c
ĠMin nesota
ĠhÃ¡ bito
ĠBenedi cto
ĠR and
ĠF ou
ĠCh ad
ĠS os
Ġj ub
Ġimp u
ĠPla ya
Ġcuid ar
Ġnervi os
Ġna taciÃ³n
Ġconcurs antes
Ġin interrump
Ġrev ancha
ĠEdi ficio
ter ÃŃas
Ġreac tor
Ġsurg ir
Ġjuda ÃŃsmo
Ġbol s
ĠTV E
Ġjugue tes
gan tes
ĠSacra mento
o te
Ġin segu
ĠQ ing
Ġenf ure
Ã©l icos
Ġrepe ticiÃ³n
Ġfall ido
Ġdespa cho
ĠautÃ©n tica
ĠToma toes
f ismo
estructura ciÃ³n
z za
Ġin certi
ul u
Ġconsecu tivo
Ġcuar teto
orm al
Ġreconstru ido
Ġdescen tr
Ġdefin idos
Ã¡ndo las
Ġatac ados
Ale mania
Ġgras a
I mp
r adores
tiz ados
p ra
ĠM ess
Ġac titudes
Ġcontinu as
Ġpe ticiones
H an
Ġg ene
Ġdestru ye
Ġcomposi tora
ĠHur tado
in ense
go w
por a
ĠAn dra
ord inaciÃ³n
Ġfavor ecer
ĠP RI
Ġcons isten
Ġenerg ÃŃas
ĠBuda pest
Ġal ivi
des puÃ©s
ÃŃn s
ĠDi rig
Ġqui ero
trans por
Ġre e
ĠEs tambul
Ġti bur
Ġsuf riendo
ĠAl fa
Ġsac ra
Ġglo bo
ĠAur ora
M ac
o ch
p ido
ĠC all
ĠI van
ĠN ass
ts k
Ġref iri
Ġtitu lÃ³
Ġinver na
ĠTeo doro
Ġreg imientos
Ġcruz ado
u ble
Ġdispu tada
Ã©n ica
Ġcomb inaciones
Ġfinaliz ada
ĠSil ves
Ġexitos as
ĠS cha
Ġaf iliados
ĠChampion s
du que
va tar
ĠAl terna
tag Ã³nico
Ġagre ga
Ġnom en
Ġaut oma
ĠarquitectÃ³n ica
Ġconsolid ar
J ames
Ġal am
Ġr Ã©plica
ĠNie to
H y
ĠA za
ĠI x
Ġdelin cu
Ġgan ados
Ġa ci
Ġor aciones
cÃ¡n gel
Ġcanad ienses
ĠexplÃŃ citamente
ĠlegÃŃti mo
ĠN y
ĠCon f
Ġdefec tos
Ġan tologÃŃa
Ġpol im
Ġelog ios
ĠLenn on
Ġfor o
Ġcar ecen
z amiento
ic ular
Ġpa ga
Ġcomunic arse
Ã© tera
Ġcre yendo
ĠSebasti an
ĠBab y
Ġenve je
Ã© ase
Ã¡c tico
Ġproces ador
Ġdesp rendi
d aron
Ġno dos
ie u
Ġ180 6
ĠS is
cu laciones
ĠD ale
ĠY ang
ĠRo w
Ġrecaud ar
Ġcartu chos
Ġch al
Ġvir tudes
Ġcurios idad
ĠJenn ifer
Ġal is
igu era
ĠInstitu ciÃ³n
ĠIr ene
Ġcrea tiva
Ġhue cos
L i
ĠR ural
Ġdivers a
Ġagr aria
B ig
Ġlo co
Ġrecor riÃ³
ro ta
Ġciudad ana
Ġcorrespon sal
Ġcomprom isos
M emor
ĠC C
ĠS ri
Ġeven tual
ĠVer ano
Ġcicl ista
Orig inalmente
A na
ĠE ran
ĠS mackDown
ĠTen nessee
ĠS lam
Ġper dÃ³n
ĠK il
Ġcl ado
ĠBri t
sol ini
p ue
ĠReg resÃ³
ĠLi u
ĠHues ca
ĠN aran
ie d
tÃ¡ cico
erv os
dor as
Ġobs es
f fa
Ġme ga
Ġmar keting
ĠCh ang
Ġelabor ados
Ġdecor ados
Ġpec ado
ĠCom mun
Ġedi tar
Ġespeci alizaciÃ³n
Ġinstal a
S am
Ġl ici
Ġex puestos
Ġfr entes
ci tas
Ġpeda g
ci an
ĠDe partam
ĠprÃ¡c tico
Ġinno v
pa je
Ġinform aron
ĠRay mond
Ġmu taciones
Ġsitu Ã³
In s
ĠBal timore
Ġdom ingos
ĠJa cinto
Ġdistribu idas
Ġbio diversidad
Ġconfun dir
y i
Ġhab itado
Ġins urrecciÃ³n
Ġri ber
eci era
Ġexpon er
G E
rie la
M T
pe a
Ġenter rada
Ġimpos ibilidad
Ġexpuls ar
ĠFilar mÃ³nica
Ġacces orios
p icos
ia o
ĠMars ella
Ġcuch illo
ĠMas on
ming ham
N i
Ġf Ã³r
ĠM og
Ġven ciendo
estado unidense
ĠIn do
Ġrap ero
Ġregal os
Ġprohibi da
ĠHer manas
Ġocul tar
ÃŃ qu
Ġin hibi
Ġadop ta
ĠLor ena
ĠIn no
ĠRe ales
ĠmÃ© dicas
Ġmostr aban
ĠLt d
ca usto
Ġprove edores
Ġrev al
Ġpal m
Ġemper adores
Ã©ndo les
ĠSpen cer
Ġincu mpl
Ġfores tales
ĠM ila
ca y
if ormes
Ġgratu ito
ĠM ina
ĠIn strucciÃ³n
Ġam er
Ġho ckey
Ġsuje ta
Ġhuel la
ĠSpe ars
A ra
Ġg i
Ġcrea tividad
Institu to
Ġla dera
ĠMus solini
Ġpredominante mente
S ha
Ġejer cido
ĠBarran quilla
ĠP ico
ĠCor re
ĠVan couver
Ġmatan za
Ġmu da
Ġsen tirse
Ġconfirm ar
ĠBer na
Ġan Ã©cdo
Ġsem illa
Ġm io
Ġlo cura
Ġconse jeros
Ġrad i
ĠGal lo
Ġadap tar
we en
Ġperspec tivas
L O
la yo
Ġro dÃ³
tÃ³r icas
Ġpatr ulla
inter pre
Ġameric anas
Ġor ejas
ĠZ Ãºrich
Ġcome di
ĠSon ic
Ġsup ers
ĠElec ciones
Ġpsi quia
ic ciÃ³n
Ġhom bros
Ġloc alizar
Ġasegu rarse
M iguel
ĠL ion
Ġpres o
aliz arse
Ġdici Ã©ndole
Ġcaracter izada
B el
ĠI ta
ĠK ub
Ġv ial
ĠS oph
Ġsol edad
Ġdipu tada
Ġgem elos
Ġconven ce
Ġreg lam
Ġdirec tivos
Ġconven ciones
ĠKe ith
Ġeru ditos
c s
ÃŃ bulo
mi le
Ġbas aba
Ġextra Ã±os
Ġvas o
Ġestric to
ĠO z
Ġmil ita
ĠMe jÃŃa
Ġaprovech amiento
Ġdeber es
ĠStar s
ĠHun ter
Ġtran vÃŃa
ĠGodo y
" >
Ġmu ch
Ġlo bos
Ġas tero
196 7
ĠCam eron
Ġclasifica ciones
ĠRober ts
Ġveinti cinco
Ġencues tas
g ma
Ġcons pir
Ġtransform ado
Ġen verg
Ġsepar aron
Ġincre menta
197 1
Ġpatrio tas
Rev ista
T emp
Ġn acen
ĠG ur
Ġbre cha
Ro bert
ĠPon ti
Ġp Ã¡nico
ch ino
qu a
Ġprote ge
Ġcelebr adas
Ġhuy e
ade cu
Ù Ĩ
Ġases inada
ĠBal canes
Ġvin ilo
ĠEnseÃ± anza
Ġcon tag
gu ilas
Ġob rera
man d
Ġgrab ando
ĠIng lÃ©s
Ġelig ieron
ĠR ip
ĠUr quiza
ĠÃ©tn ico
ĠolÃŃmp ica
Ġvam piro
Ġ( âĢľ
Ġdiv ino
Ġri tos
ĠEd ge
hen es
Ġ178 9
ĠLÃ© rida
ĠA mpl
tra tos
Ġma tch
ĠCom pe
Ġcaser ÃŃo
A lex
ĠG et
Ġpon iente
anim idad
Ġest Ã³ma
Ġfin o
ĠLuis iana
D F
ĠmÃ¡s caras
Ġdisminuy Ã³
Cal ifornia
ĠE arth
ĠG em
ĠSuper copa
Ġprostitu ciÃ³n
ĠepÃŃ teto
Ġfor zada
Ġproto col
A sociaciÃ³n
L I
Ġexten sas
M el
id ra
Ġarran que
Ġintern ado
ĠStad ium
Ø ±
in de
us tino
Ġgan arse
Ġconstitu cionales
Ġrepresenta tivos
tÃŃ tulo
Ġpion era
Ġyar das
tel lo
Ġfundad ora
Ġincorpor aron
ĠSindica to
Ġen Ã©r
Ġpos tre
ĠMa th
Ġinven tor
Ġcil indro
Ġap el
Ġus ur
Ġro bos
cas a
cil las
ĠMary land
ĠMeta critic
U r
ĠU A
Ġatra cciones
Ġsex os
Ġpoten cialmente
Ġrecomen dÃ³
Ġtranscur re
Ġ20 21
Ġtrans f
ĠM Ã³n
ĠBar Ã³n
ĠBa ttle
ĠSte fan
Ġdesign ados
ĠMÃ¡ ximo
Ġsubcam peonato
Ġver bo
ĠCam a
Ġimplic ados
ĠerrÃ³n eamente
ielorrus ia
- .
Ġe vo
Ġlanz ando
ĠComer cial
Ġjusti fic
ĠN unca
Ġtradu ctor
Q uer
ten ango
Ġjug ada
Ġcomprome tido
Ġm ero
il or
par d
cer ca
ĠTer uel
Ġes qu
ri ano
Ġg entes
ĠR ing
ĠY ama
Ġconf iesa
Ġreclam ar
Ġpar do
ĠH uracÃ¡n
Ġna ciente
Ġderro car
Ġcompor tamientos
ĠAutor idad
Ġbo tÃ³n
ĠM endi
Ġdes bloque
ĠVenez ol
Ġcompren dÃŃa
Ġlum inos
Ġsorprendi Ã³
Ġtom ados
ĠÅ ł
Ġas fal
ĠZa pata
Ġperfec ciÃ³n
Ġrequis ito
Ġpref iere
al ias
ĠN ilo
Ġgra vita
Ġentren adores
ĠHern ando
Ġcomple mentar
Ġdistribu ir
ĠEm my
F un
Ġrequer ido
ĠConnec ticut
ĠCa dena
Re al
Ġsuspendi Ã³
C en
ĠE y
Ġcir co
Ġenverg adura
Ġenv uelto
Ġbu distas
ĠDra ke
Ġas us
Ġau diciÃ³n
ĠMan comunidad
Ġdescri tos
ĠPam pa
Ġcore ano
Ġdren aje
l ara
Ġenter Ã³
Ġdescar gas
ĠPrincip al
is se
na cida
Ġ18 18
Ġval e
Ġnorte americanos
Ġdom ina
ĠSant ÃŃsimo
de mo
ĠL l
Ġac oso
Ġcer radas
Ġanti aÃ©
Ġcr om
Ġempez ado
Ġconce dida
Ġescal as
x ias
cil los
ĠFrancis ca
196 6
ĠLim ita
le v
ĠZ or
Ġtal los
Ġdetermin ante
Ġoblig aron
Ġdistingu ido
ĠTig re
ciclo pedia
ĠT ib
Ġaustro hÃºn
ĠCar ranza
ĠCa fÃ©
ĠCu zco
ĠOs orio
ĠVo z
Ġacel eraciÃ³n
ĠHer mann
Ġlim ÃŃ
Ġnutr ientes
ĠAnto fagasta
ĠPicas so
ĠS tro
Ġno do
ern er
G C
n ombre
ol f
Ġacces os
Ġlap so
s son
ĠLe ipzig
Ġtal lo
Ġdi era
Ġtr ig
Ġdo tado
Ġsus trato
ĠLu ciano
Ġva ca
Ġneces itar
Ġcomb inar
ull ivan
Ġemo ciÃ³n
Gener al
m ulas
Ġindi gn
vis ion
ĠHo ff
Ġsepar arse
ĠW ith
Ġrom Ã¡n
ĠWat son
Ġcomis ario
ĠPino chet
Ġexil iado
. Â°
pe ta
Ġpermi ta
Ġagu jeros
Ġdesarrollar se
Ġpas ados
enda ciones
ab i
Ġpropie taria
Ġtradu cida
ips is
ĠPad illa
ĠSan tana
Ġgra mÃ¡tica
Ġatac ada
lah oma
ab ria
ĠD Ã©
segu ida
V E
Ġdis olver
Ġdos cientos
Ġprepar ados
Ġang ular
Ġhabita ban
ĠAl ca
Ġlar vas
Ġrepor ta
t Ã©n
ĠP ich
e jos
v ig
Ġh igos
Ġcu a
ĠLu cy
Ġobliga toria
ĠPa v
Ġesco ger
ad ino
Ġcor s
Ġinv ic
Ġcru ci
al mirante
ĠP anzer
Ġhostil idades
ĠR udol
L ond
Ġn ano
aj ar
com paÃ±
Ġreele gido
princip almente
gu esa
tam ante
ĠZ Ãº
Ġgen io
ĠA eron
Ġex ci
ins ki
Ġetc Ã©tera
C in
l aron
le tos
ch Ã©
Ġban quillo
Ġc Ã©sped
Ġno taciÃ³n
Ġj on
tur y
Ġcivil izaciones
ĠK ay
Ġfirm ada
ĠIgu al
n ueve
Ġy ugosla
tar le
In cl
Ġgros or
ti es
Ġindi cado
Ġmed all
Ġp asta
Ġcons te
Ġpres tado
Ġesc amas
ĠK ap
Ġmar chas
ĠFamil y
Ġpeda go
Ġaerop uertos
Ġinf ru
Ġaf ili
Ġchim ene
p ia
Ġl lano
Ġb ec
Ġac ome
Ġles bi
Ġsepar an
Ġposterior idad
Ġejer ciendo
Ġinvolucr Ã³
Ġtransvers al
C he
ĠRin cÃ³n
Ġperon ismo
m ienda
En ter
19 39
ĠCu ad
ĠmÃ³ dulos
Ġdespe gue
Ġpro hib
Ġcar tera
Ġab riendo
Ġinsur gentes
Ġre cto
Ġcar teles
tor re
ĠBerk eley
ĠWalla ce
Ġdesa cuerdo
Ġrecom endaciones
Ġcoci n
ĠdaÃ± ado
Ġfall Ã³
Ġmarx ista
Ġconta bil
Ġdi ur
Ġlad rillos
ĠS P
ĠMar ino
Ġreun ido
ĠCristi ano
T ime
ĠdiseÃ± adas
Ġadqui riendo
a torial
Ġmus cular
Ġestatu to
Ġobis pado
Ġre henes
Ġnor deste
Ġelabor Ã³
ĠKir chner
ĠNa ciÃ³
Ġeclesi Ã¡stico
Ġhero ÃŃna
es cu
Ġabsolu tamente
Ġara gonÃ©s
Ġsuble vados
Ġreson ancia
g ana
Ġb uro
Ġmin ero
Ġresiden cias
Ġfusion Ã³
Ġre tor
Ġdi arias
Ġmas cota
tr um
Ġch am
ci e
Ġcorre os
Ġsecues tr
Ġpermit ÃŃan
Ġcancel ado
Ġteles copio
Ġneocl Ã¡sico
Ġsi rio
ma yo
Ġacu Ã±
Ġserp ientes
k ir
ado w
bl ast
ĠK ill
ga t
Ġdomin ada
Ġconec tados
ĠModer na
hos t
ci ados
ĠG aller
Ġbu dista
196 4
Ġvil lanos
Ġque jas
Ã¨ ne
Ġregistr ar
Ġapor taciones
Ġdefender se
Ã¡ce o
ĠMcC artney
ĠmÃ© ritos
Ġmoder ada
Ġpens iÃ³n
Ġintelig entes
V ia
Ġpue do
Ġol as
Ġgaran tÃŃas
ĠW ii
Ġobserv adores
ĠGa ga
bi que
ĠEsc uelas
Ġconmemor ar
ran ÃŃa
Ġdeber Ã¡n
Ġlatino americanos
ĠY uri
Ġavanz ados
Man ia
Ġcolombi anos
ĠLegisla tivo
v ano
unta in
Ġzapa tos
Ġove jas
ĠAgru paciÃ³n
Ġa per
ĠB iblio
Ġab uelos
Ġfavor ita
ĠKy le
ĠBenjam ÃŃn
ĠAndro id
ĠH in
Ġpresen tadas
Ġconfirm ada
Ġhel en
Ġrelo jes
ĠProduc tions
Ġre mp
ĠS na
ĠD ir
Ġcos tÃ³
Ġhom ogÃ©n
Ġacep taron
Ġincorpor arse
tz al
ĠGuer ras
S olo
Ġindis pens
Ï ħ
Ġc imientos
Ġdi la
ĠPal mer
ĠCristi ana
Ġn ÃŃ
amo to
Ġele var
ĠA Ãºn
Ġw a
ĠE th
Ġsuf rÃŃa
ĠResta uraciÃ³n
w ic
Ġdesconoci dos
Ġdiplom Ã¡ticos
ĠCande laria
Ġinter vin
Ġorg Ã¡nicos
Ġr ing
na v
ĠPres enta
Ġconoce mos
Ġestima ciÃ³n
ĠCra ig
ĠvÃ©rte bras
ĠdÃ³ lar
Ġapor tÃ³
Ġcicl istas
Ġr Ã¡
Ġesta bles
Ġclasific an
Ġgolpe a
ĠDam asco
ĠJosef a
e des
Ġti be
Ġsug i
Ġosci la
M O
m ales
Ġcar gar
Ġdig it
Ġindis cu
f fer
Ġj abal
Ġex haus
Ã¡l tico
ĠItal iano
Ġtecl ados
ĠCis neros
s im
ĠR S
ch y
Ġmedi ciones
Ġhum ed
Ġoposi tor
Ġametrall adora
Ã¡s ticamente
Ġgobern ado
Ġsing les
Ġrehab il
ĠEspar ta
i pa
Ġtecn olÃ³gica
âĢĻ .
Ġrestable cer
Ġa que
Ġen terra
Ġdepartam ental
Ġhun dimiento
de on
id ora
Ġa re
ĠR onda
ĠMar tÃŃ
ĠUnivers idades
Ġregres an
ĠMorris on
ĠA B
Ġpas tores
Ġcos mo
Ġreal ity
ĠE lo
ĠN FL
Ġexcl usiÃ³n
ĠSud americano
ĠPach uca
U l
ĠS iguiendo
Ġpre dio
Ġcre o
Ġfun cionales
Ġpl Ã¡
Ġexpan dir
Ġrem ez
Ġcarl istas
Ġfero z
Ġal ban
ĠO sa
ara gÃ¼
Ġcomp ras
ies tas
Ġestr ena
Ġsome tida
Ġajus te
Ã± or
Ġactu ado
Ġinvi ernos
ĠJur ÃŃ
ĠEug enia
Ġasign ados
Ġhoriz onte
ĠBien al
Ġucran iano
ĠhÃºme dos
Ġen tierro
ĠTy ler
Ġpropon er
Tu vo
ĠBee thoven
am ado
ĠCon cer
tro po
Ġdu reza
ĠSe Ãºl
Ġmi rando
Ġdoc ena
fl ix
culos is
fil os
Ġcompi tiendo
Ġdif iere
ĠG ill
Ġher edad
ĠÃ ł
196 5
Ġimpac tos
fer ence
Ġmar char
Ġcer rados
Ġcuar teles
h m
ĠS ter
Ġbrasile Ã±os
ĠM ona
ĠChris t
Ġprocl ama
A quÃŃ
ĠR P
Re alizÃ³
Ġaprovech a
Ġbizan tina
p icas
Ġca cao
ve ar
Ġtele fonÃŃa
Ġindustri alizaciÃ³n
Ãº d
Ġfor zados
Ġfundam ento
Ġocul to
F ar
Ġn erv
ĠAr en
Ġtrav esÃŃa
Ġaustria co
hi jo
Ġperten encia
Ġfinanci amiento
ĠhÃ¡ bil
Ġn ic
ĠH and
Ġacu sa
Ġo puestos
Ã¡r s
Ġasoci Ã³
Ġin adecu
ĠCa u
ĠLas t
ĠFer re
Ġfel ici
Ġorques tas
Ġar quero
ĠW oman
ĠS U
ĠS ÃŃn
ĠR is
im ento
ĠY ar
ĠMo del
ĠMongol ia
ĠAr till
cil l
ĠLu cha
Ġregres ando
Ġrobo ts
L iga
f ÃŃs
ĠA ta
pe da
Ġtu s
Ġgu i
ĠHer man
Mu jer
Ġsobr en
Ð¸ Ñ
w yn
mas car
Ġextin to
Ġcon gre
Ġins pira
Ġescri bÃŃa
Ġanti cuer
era tiva
Ġases inos
Ġfir man
Ġextrem idades
ĠestÃ³ma go
ĠB ielorrusia
Ġ7 50
ĠDes taca
Ġfal sas
Ġl Ãº
ay or
ĠMar ines
Ġcondu ctores
Ġras tro
ĠHel en
ĠSÃ¡ enz
ĠGuardi an
ĠnÃ¡ huatl
ĠH ey
Ġrev ueltas
Ġfer tilidad
Ġpsic olÃ³gico
Ġguatem alte
ro y
Ġdi ariamente
Ġb and
ĠValen tÃŃn
ĠNe p
Ġbomb eros
e ado
ĠF ARC
ĠClub es
Ġalf ar
istÃ³ cra
A z
S he
Ġab rum
Ġseman ario
cul Ã³
Ġpresenta ban
Ġvien tre
ip as
Ġpon ÃŃa
Ġadyac ente
Ġinfru ctu
ĠSe y
ĠPro greso
ĠDire c
Ġbril lo
ĠLeon ard
ĠMÃ³n aco
ĠT um
gra ve
Ġpeligros a
Ġlanz an
Ġadecu adamente
Ġcomp as
ĠMay a
Ġtrib una
ĠLar ra
Ġparal elas
re v
Ġviaj an
Ġvan guar
Ġestric ta
Ġeclesi Ã¡sticos
Ġpar ciales
Ġloc almente
ĠEspa cio
R ich
Ġmun di
Ġdif ieren
ĠNicol as
ĠG ris
rÃ³n imo
Ġhisp anos
Ġsolu cionar
Ġsatisfac ciÃ³n
ĠBor ja
ĠEdi ciones
Ġbolchevi ques
Ġo puesta
f lu
Ä ĵ
Î ·
ĠL ore
Ġdi lu
ĠG az
po ca
ĠdesempeÃ± ar
ĠMac ri
ĠrÃ©c ords
Ġrecomen daciÃ³n
ĠInvi erno
Ġir ri
h man
ĠO d
ĠIn o
ĠOs valdo
ĠFreder ick
es tes
Ġsu ena
Ġan tis
Ġcol ega
Ġejer cÃŃa
Ġileg ÃŃti
Ġb rus
Ġf ris
Ġo cio
Ġminis tra
Ġpaula tinamente
Ġsal vaciÃ³n
Ġclar idad
Ġdemostr ando
R ec
ch ia
Ġpre ju
ĠAn ima
ĠCar naval
Ġexp licaciones
ĠBan ks
ĠBla ke
Ġadministr ado
Ġprepara tivos
ĠC ura
ĠO wen
Ġfemin ismo
b ando
Ġd ÃŃg
ĠAn tena
ĠPor fi
su per
ĠMois Ã©s
Ġcan celaciÃ³n
ĠCh ic
ps is
ijo te
es tern
Ġb Ã¡r
la ce
ĠSh an
Ġlig eras
Ã³l ico
ĠKar en
Ġadecu ados
Ġrefiri Ã©ndose
Ġsecues trado
l al
ch s
Ġanunci ada
tima te
Ġs as
Ġrepe tidas
Ġterremo tos
z can
Ġc adu
ĠP Ã©r
ĠT ierras
ĠMa k
ĠSus ana
ĠW onder
ing ham
Ġsan ciones
Ġsul f
Ġafro americanos
di rector
ut z
ĠRu th
M onte
ĠD ennis
Ġinici an
Ġilustr ado
Ġla vado
p rudencia
Ġc itados
Ã©n icas
ĠJos h
Ġnoctur nos
ci ares
Ġn Ã¡u
Ġdi ablo
ĠN ex
Ġprim as
ĠK la
Ġconver tida
ĠCris tal
Ã¤ r
ĠBus tamante
Ġresal tar
ĠbÃºl garo
h ombre
Ġc era
Ġreivin dica
ĠcrÃ¡ ter
ion aje
ang er
ti ga
Ġcome ter
ĠCla ire
ĠPue den
es h
Ġmar es
ĠBar bara
ĠMon tal
Ġjubi laciÃ³n
ib ar
Ġartes anal
Ġcarb on
Ġbicicle tas
19 60
Ġama z
z ego
Ġar istÃ³cra
Ġsuce dieron
ĠÃ©tn ica
' )
ĠK ey
Ġaco p
r encia
ĠS osa
cu ro
Ġesp adas
S ie
ro ll
ĠBa den
Ġver b
Ġsab idurÃŃa
Ġrestric ciÃ³n
ab ra
lo a
Ġam igas
icen tenario
Ġcoe ficiente
Ġpresbi terio
f und
Ġal iada
ĠG el
Ġmill on
Ġcel este
Ġaver igu
ĠH im
Ġpel os
Ġfa ceta
Ġmotiv aciÃ³n
Ī Ĵ
Ġcam isa
Ġliberal ismo
in erÃŃa
Ġsu dafric
ĠL ugar
ff e
Ġil usiÃ³n
Ġdecor ada
ĠCine mato
n u
in ho
Mus eo
Ġm ÃŃtico
cho v
ĠaÃ±ad ieron
ĠStu art
kin son
ci pa
im undo
iden cia
Ġfuncion ando
Ġpoten tes
i ers
ĠAr co
Ġmon arcas
Ġnor man
Ġhistor ieta
Ġmol inos
A par
Ġespos as
Ġexces iva
ĠDuran go
ĠContinu Ã³
t land
dem Ã³crata
. ;
Ġdepor tistas
ĠautÃ³n omas
ĠWres tle
ĠRe in
Ġresul taba
ĠJ uega
Ġpas toral
Ġco h
Ġconfron taciÃ³n
ĠM C
Ġper pendi
Ġcan tones
ĠÃ¡ tomo
Ġdo l
Ġarmen ios
Ġmodal idades
" âĢĶ
Ġna vide
ĠHar vey
196 2
Ġfesti vidades
ci udad
mp lo
ĠMon tero
hi ro
Ġin cr
Ġrela tivos
Ġfolcl ore
J ack
Ã ®
Ġdesarrol los
Ġdesapar ecieron
Ã©ndo los
il ios
Ġan to
ĠSan z
Ġmedio amb
Ġconsum idor
Ġprim os
Ġ17 00
Ġfuncion aba
ĠPit ts
Ø§ ÙĦ
Ġrepar tidos
iemb ros
. ",
an Ã©s
Ġhacer le
pendi endo
ĠGab inete
Ġmate mÃ¡ticos
N I
Ġbas al
Ã¡g rimas
Ġregular idad
Ġtiro teo
Ġsacris tÃŃa
ĠEn fer
Ġescla vo
Ġse vera
ĠBM W
p is
ĠBernard ino
ĠsuperhÃ©ro es
pris e
Ġfal sos
ĠCamp us
ĠvÃ¡l ido
A t
f ano
ab ar
tin u
Ġcolabor ando
gun do
ven a
ĠSing les
ĠAna tol
Ġvac una
Ġatribuy en
ĠJess ica
es paÃ±ol
Ġas amble
ĠMan ila
Ġambi cioso
ĠTam poco
Ġlegen d
Ġe d
ĠC id
Ġbien venida
Ġincom pa
Ġblin daje
ĠA aron
Ġex hibe
ĠK Ã¶
ific adas
ĠAnton ia
Ġps ÃŃqu
ĠZe us
haus en
Ġcor rup
ĠTu vieron
ĠMag no
Ġcosech as
p tos
is tad
Ġimpor ta
ĠmÃºs culo
ĠC aj
Ġcompar tida
Ġrecog ido
Mus ic
Ġp Ãºrpura
tiv ista
col omb
sen ada
Ġprol if
Ġrique zas
d omina
Ġperman ecido
Ġalter aciÃ³n
ĠsÃº b
olu ca
Ġcolo cados
Ġfer tiliz
in ga
Ġtrans fi
Ġfronter iza
cion aron
Ġinter ferencia
Ġdispu tados
ĠHar o
Ġsolici tado
Ġhorizon tales
b ama
ĠHol mes
Ġprac tica
di eran
ub ic
Ġarque Ã³logos
Ġneum Ã¡ticos
Ġres istentes
Ġfor zar
Ġpa trimon
Ġdestru idas
Ġil ÃŃ
Ġvam piros
e do
z ones
Ġv emos
Ġfin cas
ĠW ard
Ġatle ta
Ġfeste jos
A parte
f ul
ĠK r
ĠAle gre
Ġreconstru ida
in u
Ġun animidad
ez o
Ġcan s
ĠfÃ³r mulas
ĠP Ã¡
Ġca zar
ĠAn tigÃ¼
hu ac
Ġacab arÃŃa
Ġpudi ese
ĠcontemporÃ¡n eas
Ġnecesita ban
or re
tr is
ĠJ Ã³venes
reg Ã³n
Ġa pu
Ġab di
ĠCar me
Ġpan ame
Ġidentific an
ĠModer n
Ġdestitu ido
M c
Ġven ir
Ġcel os
ĠAten eo
ĠPir ineos
Ġans iedad
Ġf aro
ia ta
Ġto caron
ĠCla y
Ġhor mon
Ġaz u
Ġvenezol anos
ĠElec tric
A ustr
A D
m eros
ig no
ĠMor e
I t
ĠC ip
ĠU b
Ġcal zada
Ġ179 3
Ġfrag men
s olo
Ġcap ite
cios os
ĠTemp orada
ĠAntrop ologÃŃa
ĠM isa
Ġelec tores
ĠSa grada
ĠFin anzas
Ġa genda
Ġcal ifa
Ġrad ica
Ġdefendi endo
Ġmongol es
ici na
Ġcumpl en
ĠfÃ³s il
Ġpersegu ido
ĠbotÃ¡n ica
Ġfalle cidos
Ġinterac tu
uf rag
Ġblin dados
ĠaminoÃ¡ cidos
W orld
ran io
Ġtr inch
ĠPa olo
Ġdefin idas
Ġamistos os
ĠrÃŃtm ica
Ġre estructuraciÃ³n
Ġdes ple
Ġdefen dÃŃa
Ġmision ero
Ġinter con
Ġbus to
Ġincerti dumbre
Ġgrad ual
Ġexig ÃŃa
Ġrein corpor
Ġcer co
ĠLic encia
Ġdemol iciÃ³n
ĠEs loven
eci ente
Ãºr gico
Ġcarl ista
M iss
n ea
ĠB ala
Ġcu mbres
Ġsin ies
cra ft
du cciÃ³n
Ġtra uma
cal ipsis
Ġreci bÃŃan
Ġliber ada
ĠRom eo
Ġ ond
ca t
ĠG ard
gu laciÃ³n
Ġpre fectura
can dida
ĠCatal ana
b ard
ĠAl vear
ĠpÃ¡jar o
ĠB in
ĠBan dera
Ġtecn olÃ³gicos
ĠCham ber
ĠAlf aro
Ġel ÃŃp
ta y
Ġh ones
Ġcub anos
ĠZ an
ĠMon ti
Ġinform al
O P
cas ter
gl omer
ĠR CA
! !
T R
Ġdesaf ÃŃos
ĠAndra de
Ġcon cor
br ar
Ġocur rieron
Ġexperim entaciÃ³n
Ġcritic ada
Ġnatur almente
Ġh as
Ġal ude
Ġrev Ã©s
ĠÃģ lava
Ġprove edor
Ġcapite les
ĠEs tra
Ġatra ÃŃdo
Ġ179 0
Ġprove e
L ife
Ġsegun das
Ġalgorit mos
Ġsin ton
var o
ĠQu i
ĠRos en
Ġdestru yendo
h ir
res ÃŃa
Ġmag ne
ĠBir mingham
J orge
ĠP il
ĠAz teca
Ġconsa graciÃ³n
Ġdistribuy en
zego vina
ĠAc ta
Ġconce der
Ġavanz ando
Ġtran quil
Ġrema te
Ġroj izo
Ġrell eno
Ġtex tiles
Ġpluma je
Â» ".
Ġencuen tre
ĠPro vis
reg iÃ³n
Ġaudiovis ual
Ġad misiÃ³n
Ġmu riendo
Ġtra ÃŃdo
Ġantrop ologÃŃa
ĠCer deÃ±a
Ġafi anz
Ġhomici dio
ĠC Ã©
ĠHen ares
ĠGib son
ĠAntio quÃŃa
Ġl Ã³gico
cal o
Ġorden aciÃ³n
Ã©ri gos
Ã¼l ler
á ¹
ĠS I
Ġca tÃ¡s
Ġcolo caron
Ġfas cista
Ġmen tor
Ġastr ona
Ġte tra
Ġpal eo
Ġprepar ando
Ġpene traciÃ³n
C la
Ġson da
195 8
Ġconsa grado
ĠK oso
ĠMah oma
ĠIsl Ã¡mico
k ien
la zar
ab amba
Ġvar iado
Ġcr ÃŃas
Ġer rad
cla tura
Ġdemostr aron
" âĢĿ
Ġorig ina
Ġatra par
Ġsuspen der
om on
Ġins istiÃ³
Ġestu vieran
Ġdirec tas
ĠChris ti
ran as
Ġle jano
Ġcandida turas
Ġmexic anas
ĠH ig
ĠZÃº Ã±iga
v ski
ĠPro vi
Ġejecu ta
Ġorg ul
Ġpromul gÃ³
Ġanteces or
Ġcantau tor
Ah ora
ĠArtill erÃŃa
Î ¯
Ġsuper mer
Ġc enta
ten as
Ġarti culaciÃ³n
ÃŃ ficamente
Ġescuad rones
Ġtard Ã³
Ġline ales
Ġsaque o
ĠLey es
ĠCur tis
Ġretom ar
Ġperegr inaciÃ³n
ĠPort land
Ð ´
ĠChu ck
Ġincorpor ando
S pe
Ġun dÃ©
ĠR andy
ion arios
Ġcontrol ados
P op
ib ern
cial ista
ĠFiscal ÃŃa
Ġnup cias
ĠpÃ³l vora
E je
F F
Ġc Ã©n
Ġ( ).
ĠEs tan
Ġirregular idades
Ġmilici anos
Ġpas tel
Ġespe cula
Ġactu aba
Ġrepar ar
Ġcordo b
Ġfron tÃ³n
Ġdestitu ciÃ³n
in amiento
Ġin er
it ancia
Ġdepre dadores
Ġfluy e
ĠEs mer
ĠRe un
ap an
Ġfal las
Ġexig ir
ĠVol un
Ġteleno velas
Ġcatalog ado
Ġimp re
Ġren tas
Ġafec to
Ġdis uelto
Ġinver tir
Ġfle chas
ĠHe ar
ĠRichard s
Ġgestion ar
ÃŃ menes
ĠÃ¡ pice
Ġtra za
ĠSal v
ĠJes se
Ġre man
mi tes
ren den
ĠAs tor
ĠNo u
ĠLegisla tiva
Ġperpe tua
ĠErn est
ĠL lor
ĠRa ce
Ġexac titud
ro Ã±o
Ġdis puestas
ĠRey n
use bio
do to
Ġv elas
Ġcontinu ado
ĠWar ri
Ġt inta
min ster
de d
Ġma go
W ar
Ġo val
po tam
id s
ĠMag ic
Ġregistr adas
Ãī l
Ġc una
Ġa tl
Ġinflu ir
Ġenerg Ã©tica
Ġprome tido
un tamientos
Ġvol vÃŃa
Ġfla uta
ĠD um
Ġven eno
ĠNe go
Ġgen ocidio
ĠCre tÃ¡cico
ĠAng ola
y era
ĠS ando
tÃ³ logo
eric or
ĠPe Ã±
Chi le
ĠVolks wagen
Ġapor taciÃ³n
Ġsilves tres
h ay
t man
Ġpos turas
th on
Ġproce den
iz arse
ĠEl lio
Ġgran jas
Ġimp lÃŃ
ĠPo tter
Ġrecor dÃ³
Ġresiden ciales
Ġexperim enta
ÃŃfer as
ĠOcta vio
Ġ( ...)
ĠO campo
cle ar
ĠInter pre
ĠAmb eres
Ġarque Ã³logo
ĠGÃ¡l vez
b ru
ĠMer ced
Par ÃŃs
Ġpier den
Ã©la gos
v amente
Ġa ulas
Ġpar entes
Ġan Ã³nima
Ġcons taba
Ġcentr arse
ĠEcon Ã³mico
to on
Ġedi ta
Ġhon dure
Ġcumpl iendo
Ġcro atas
ĠPar ty
Ġcon no
Ġre tener
Ġfue gos
forman ce
ĠPes ado
Ð¾Ð ²
Ġpantal ones
pro tagon
ĠÃ³ xido
Ġsome tiÃ³
Ġec olÃ³gico
ĠA ch
ĠT itan
bo ya
Ġvolun tariamente
ĠNet flix
Ġconvi vencia
ĠA do
Ġr osas
[...]
